moves
[unused643]
1920s
lamp
serviced
[unused813]
synthesized
invade
##kam
electronics
dq
281
transmitted
magician
ʃ
chords
narayan
humiliation
[unused698]
##pathic
##hed
##bag
uninhabited
salzburg
deception
##sp
##ie
suppress
embarrassing
lester
poisoning
gloves
mysteries
anything
ס
merlin
gasping
kowalski
sibling
reads
vulcan
lucinda
attain
sketch
st
overview
diminished
##vili
##pus
velocity
iv
[unused274]
[unused178]
brentford
adorable
ₗ
polly
alliance
92
##ulia
[unused320]
mingled
##gart
hot
hermit
##歌
haunt
##xx
disregard
second
regulated
impoverished
brawl
##jer
##uru
ml
pile
phones
consequently
fills
ok
guidelines
##学
guinea
##qa
[unused667]
begins
define
swiped
[unused623]
timber
efforts
hair
bird
##llin
asia
480
johannesburg
kumar
collaborative
property
diversified
1913
delight
1833
⊕
dimension
katrina
jewish
##ನ
忠
hundreds
##jak
dementia
syllable
sync
##taro
aggression
kendra
provision
##ages
prohibited
knot
uncomfortable
[unused250]
fisher
liza
softened
recruited
##roi
##bane
[unused126]
severed
priority
ecosystems
ideal
gora
clusters
pursued
analytical
covers
cute
slaughter
corsica
individually
outskirts
struck
gregory
strands
290
created
hunter
mars
messaging
toronto
yan
confused
shaman
additional
awful
compilations
beds
cancellation
goth
uniformly
clashes
williamson
imp
caucasian
enforcing
beatty
torn
assured
##nical
##ans
tehran
greco
britain
hound
215
##rok
evaluate
accurate
arousal
barbecue
[unused818]
message
lids
handicap
grief
##vik
transmitter
une
freed
transforms
##brick
al
forte
geo
##sville
economy
precisely
mb
undoubtedly
##tters
[unused682]
ash
##ifies
pajamas
used
##ld
qualifications
offerings
tis
chairperson
mathews
possesses
defines
personnel
transports
happen
##finger
月
##*
dogs
##sher
##lative
anna
bidding
countries
debuting
merge
forts
effort
contrasted
cornerback
benin
[unused689]
girls
ordinary
rollins
enters
[unused34]
wally
##ond
##sities
polling
tucked
##ncies
audit
presided
dinner
auf
fungi
opener
immersion
outside
knocks
[unused957]
cuckoo
modulation
hooded
##א
tactical
##ந
hackett
##op
[unused774]
abolition
[unused198]
##7th
scorpion
softness
mcnamara
badger
inclusion
claudio
##mx
simeon
puerto
oasis
reception
hendricks
hz
mist
plato
223
1863
skiing
fei
eyre
reactor
arid
skies
sometime
get
salman
hosts
##hedron
##itia
acquire
paraguay
arrangements
78
inhibitors
anthony
plane
ru
harder
##river
##cia
height
lacks
wheelchair
[unused239]
random
hectares
taxa
righteous
however
dams
fight
klan
crush
##lling
70s
abruptly
norwegian
made
baylor
##claiming
satisfied
##ᶠ
##tock
##uri
thorpe
swindon
##master
##ノ
weekday
hydroelectric
engages
value
flavors
secretary
loaned
corporation
finale
inches
gillespie
franz
louisville
##pment
fame
qc
arms
##urst
##tee
like
regional
access
##ᅵ
jets
##sler
##nett
actively
divers
20s
seventy
stuff
indie
furnace
grunt
##ation
encoded
##ha
month
novelty
algorithm
threatens
##path
1881
##wled
difference
recreational
pageant
##inho
##iver
[unused564]
feud
discouraged
nomadic
debuted
bentley
aviation
galloway
mysterious
meadow
venus
proposition
replaced
##dened
fumble
##dai
phillip
math
flame
350
torpedo
pottery
pushing
limited
[unused280]
[unused629]
musically
##ber
[unused479]
newfoundland
resign
suggestions
bela
amateur
niccolo
edit
settle
loads
accusations
##wny
enclave
fred
1793
stride
[unused793]
stink
armenians
dissatisfied
##ち
##plex
carole
##eaux
entering
musique
belarus
dominican
sniffing
tobias
##rable
unhappy
ை
##mology
1707
disciplines
sato
castles
along
transvaal
##wife
repulsed
cola
hesitant
galileo
pretoria
747
[unused159]
jamaican
broken
writer
##vy
##pen
postseason
assignments
hove
emotionally
quarrel
coyotes
staunch
ভ
canons
outgoing
mussolini
waving
gable
[unused74]
romantic
treaties
finer
##lassified
moroccan
appetite
she
pdf
statutory
##asa
argyle
##־
##rter
##gall
[unused116]
rhone
costa
≈
herself
shareholder
lodges
josephine
##オ
example
##get
endelle
[unused122]
##plate
exclusion
ρ
dying
##gle
brandon
castro
##we
zur
icons
make
witnessing
phyllis
manually
hoisted
sauce
##rc
medici
pennant
sigismund
lahore
expression
gentle
serbia
confidential
[unused662]
backdrop
exploring
##rce
planned
1761
cayman
issn
nobel
korea
preliminary
stirling
omitted
carmichael
pathogen
hannibal
observation
lsu
link
hawker
eastwood
standings
vineyard
tactic
janet
sf
hopeful
sway
hampson
commanding
gurney
brisk
##里
[unused558]
era
[unused678]
##ם
established
usa
formed
neighbours
shielded
##oge
##cey
##code
shoulder
canteen
##herton
grassroots
##₆
burst
simplified
highways
##hett
[unused182]
portraits
duct
visually
phrase
grill
enoch
manny
completely
cl
fitz
rhapsody
[unused179]
hapoel
almost
predictions
118
norris
[unused53]
self
implement
magistrate
##₀
[unused615]
‘
##lock
ℝ
##gang
chaired
##selle
schizophrenia
##mara
role
pavel
alumnus
civilian
extensively
dye
visiting
exclude
startled
purely
##ј
pointedly
fife
colombian
floors
mosquito
##tley
accessories
tripped
pensacola
##ŋ
secrets
##འ
cats
save
##rana
##氵
loose
porn
abrupt
##п
missing
alf
##jected
reeve
1808
sargent
suck
regime
enhanced
men
mortals
##ᄉ
1880
socially
##bots
laborers
theaters
##gno
##utter
sixteen
##の
gauge
medications
density
stack
science
bipolar
mattered
colon
stephenson
cheekbones
scarborough
nationalism
ned
##mbs
inner
serra
[unused84]
cr
recalls
remarkably
skeptical
perceived
henan
##jevic
[unused371]
unofficially
##sms
##iaceae
[unused73]
servicemen
remnants
[unused390]
banded
forbes
generating
swans
##な
eurovision
temptation
takes
ringo
haven
welles
classify
##ф
estimate
dona
nominee
terminates
explosion
ン
##vac
talmud
##ums
healed
combo
##issa
traveller
wireless
##rrier
by
##pr
liam
cascade
tier
leiden
projected
sherlock
mystic
##sdale
##vial
slump
inaccessible
official
##rate
thirds
mechanic
##ending
alleviate
yokohama
##nto
##雄
somehow
[unused286]
##城
times
humanist
##opped
marked
contribution
##ise
1b
hussein
relocated
palace
##riding
rosalie
archives
##uto
金
predators
carpenter
elmer
[unused712]
##chee
wild
millionaire
papa
walters
##kle
marketing
##ව
thickness
railroads
pastry
collided
##ben
strengthening
clenching
150
##cci
1907
##aire
amphibious
##factory
astronomer
[unused9]
##ج
formulated
howard
[unused764]
##nh
10
voodoo
星
trilogy
द
falls
cloth
transporting
ubiquitous
maureen
attic
##ulent
智
ধ
deux
pulp
##39
psychiatrist
##train
consciously
##lists
fore
powered
modes
お
##ม
ᄑ
co
campaigns
endemic
michelle
hades
targeting
swearing
##貝
##ⁱ
##cea
pilots
kern
##boy
cambodia
96
♠
acclaim
##ocation
celebrating
1982
lucian
bach
locked
racks
slowed
reward
noble
lea
insides
christchurch
premiere
wry
##sure
dwarfs
socialism
[unused315]
paradigm
limitation
multiplayer
restrain
vogel
##し
thou
lungs
nueva
[unused593]
projections
##anum
##keeper
commence
kepler
villas
合
raoul
tonic
throughout
evident
surfing
mesh
drainage
raul
rory
granting
scuba
darkness
##ama
baggage
##cable
mayhem
level
operated
vietnamese
kyrgyzstan
distinction
turning
crossroads
golfer
pumpkin
##cens
classification
##woods
raymond
pavilion
transparency
lambda
arts
ornate
lacey
##arts
celebration
##名
percival
##atus
negative
viruses
whereby
outfit
grimaced
quan
##rang
##+
cuba
##mental
practical
weathered
##worm
rebound
protections
entertained
landfill
malmo
hastings
evidently
##fan
kyle
##folia
inevitable
##gal
trans
inherent
unusual
gallagher
##chemist
bassett
##sie
##manship
lamar
naked
##bl
alpha
northampton
stu
acids
serves
##mide
mccarthy
##wright
bree
interviews
showcases
genetics
pbs
[unused661]
‿
##z
romania
##ulously
bailey
crumbling
hurried
aix
indicating
ambition
##hend
repression
##urer
authored
##wicz
sail
freshly
creep
minsk
pastoral
##nne
psi
reactivated
batsman
alongside
neal
##life
dominance
encompassing
volumes
##sford
##nberg
[unused822]
assessing
trading
mutually
⊗
prime
organise
##mm
victories
##ell
##÷
coloration
[unused454]
fluctuations
pads
frenchman
[unused90]
principally
ushered
kayla
blitz
winced
detachment
berth
cheryl
##lene
unleashed
bell
amor
collapse
##พ
史
[unused874]
chairs
all
maxwell
gearbox
malice
talents
##亻
favoured
nothing
##ma
##ed
democratic
[unused843]
purchased
heavily
tyler
functioned
factor
glucose
##地
[unused740]
adams
1829
modeling
##史
exceptional
saxony
chicks
[unused584]
gothic
isabelle
##hee
##ر
pipeline
pollen
##wire
##nets
##mark
##pot
chateau
##ics
ejected
ল
##erved
##jean
expired
1710
rahman
##ele
##cr
[unused935]
upset
should
fc
##felt
externally
prehistoric
prohibit
malone
maj
##τ
##§
spring
u
flush
teach
##rain
fide
sheikh
tractor
boogie
pointe
fights
sindh
light
verdi
##kor
launched
combining
commentaries
cosmetic
##vera
##opus
rec
exiles
ctv
ithaca
sprayed
oneself
ronald
martial
eponymous
lightweight
##52
hiding
certified
forrest
foundations
lip
jia
britten
absurd
##orin
scenic
overtook
sentai
gogh
boiling
rankin
muse
trailer
eager
oslo
spawning
sky
bran
babylon
remedy
referees
horror
##6
1979
reclamation
[unused801]
bala
trembled
nuevo
##words
feeds
bed
vinnie
population
cattle
supply
finishing
##ometer
##jima
pd
gonzales
##lav
opium
locke
colony
imagine
##itative
towns
layla
vampire
abandon
crept
し
shawn
328
##bo
##rries
rebel
[unused79]
ashore
##dran
marko
##ym
somewhere
middle
elder
##lder
[unused103]
##lc
zee
##iology
##aceae
intensive
impossible
nasal
##wan
##gram
vinyl
##ulous
straighten
##cin
1990s
##aur
##orth
unconventional
[unused15]
rack
##kara
shack
allegedly
improve
gallantry
nash
foxes
##aman
physician
[unused777]
hollow
hooked
##ek
realm
##ης
laid
plasma
##sight
supervisor
nods
##pin
##idium
creature
snap
coin
journals
rocked
##ش
comedic
worst
walled
patel
rape
[unused442]
geology
declan
119
carr
gleam
##gul
earlier
340
sociological
##abi
pittsburgh
starter
tertiary
slang
winery
commands
grenada
1969
beings
v8
brownish
exports
’
weather
##ndra
canadians
##holding
63
psycho
handicapped
valencia
malvern
diocese
klaus
bahia
basin
##meyer
credited
meaningful
tobin
##lier
##utable
stripe
finley
thwarted
treasure
darted
##ᆯ
residual
sweating
devoid
adverse
hartley
posting
assembly
stint
tile
series
¥
energy
played
selecting
##bb
##vo
nailed
##kins
repertory
primate
variation
##ake
##pher
robin
cohen
[unused260]
##glass
airlift
queue
strips
byzantine
shen
togo
##vres
##uted
[unused448]
lions
envy
dense
amp
##oulos
##back
nerve
[unused927]
lynne
ನ
lyrics
losing
##gard
freyja
subtle
##chev
or
##ivist
dinosaur
residence
buckley
⽥
barking
unpredictable
laos
pirate
twain
##tsu
laying
punch
##egan
glorious
secluded
slipped
mindanao
ˡ
voting
##tism
reign
##lani
meaning
revered
weber
176
##mut
idiots
640
disturbing
中
traverse
##ᵇ
##promising
[unused860]
wall
juice
underway
wished
common
elemental
[unused508]
מ
marketplace
aggressive
##ete
##space
piece
pacific
broadcasting
##ingly
##pe
spontaneous
seductive
maximum
clarkson
1724
##hore
diagrams
##eh
##ez
seasoned
coined
continues
latest
places
remixes
rey
seaman
sixty
import
##キ
[unused945]
##_
rafael
[unused465]
layton
meade
dating
##⅔
£5
leading
husky
##ɹ
calculated
[unused644]
coe
##sop
greenfield
lead
gov
pilgrim
comeback
23rd
南
##wala
carl
hawkins
##bia
emergence
juniper
ranks
paradox
favorable
deserved
innocent
##bbs
tnt
blinding
[unused600]
involving
nestled
supermarkets
##drum
ₙ
beethoven
dean
calvin
法
bulge
##pse
teased
##anus
hole
bon
attention
alyssa
judas
alfonso
75th
superficial
existing
##土
wiped
josiah
partner
##etched
##eric
announcing
fond
##ddy
mcgraw
forster
##ja
parcels
##hmi
afterwards
thorn
##ま
businesses
dudley
so
baptized
1773
##stock
preach
catalogue
bros
humour
##行
getting
1767
crucial
relocate
₉
biggest
##med
hartford
##部
169
azerbaijan
cannes
salem
updated
veto
##lke
##orus
springfield
##ci
wind
opera
beasts
regular
[unused407]
discrete
invites
strolled
##riated
##edo
psalms
##day
##cave
hayes
deliver
proximity
##user
1771
##日
cranes
syllables
##hus
fixture
labor
cynthia
##psy
241
##fire
ancient
sienna
##vus
caste
avoids
##ging
herring
sworn
rounds
blouse
amendment
##sr
myles
airmen
separates
fluent
geared
convinces
##lde
bodyguard
arising
demos
trojan
yerevan
gratitude
##lford
skating
perception
awesome
jagger
sahib
shooters
##ente
customary
barbarian
harp
nazareth
tooth
walnut
terrorists
##ttle
gamma
##cede
non
operations
mills
[unused424]
interest
revenue
swings
grammy
hum
horsepower
##enbach
shakes
viewpoint
##gp
newtown
থ
palma
paz
legs
artery
penalties
trousers
generations
patterns
guiana
appealing
rum
ぬ
optical
respectively
greeks
##ccus
govt
[unused12]
##bet
metropolitan
mistakes
stella
simplest
reuben
##cu
##ptic
priced
garry
amman
xiang
##チ
telenovela
roared
980
insulation
guerre
contenders
teammate
controllers
##lass
##@
settler
curves
##iness
albany
design
patting
organism
266
methodology
brittle
##sis
splits
##anto
constructing
eddie
scratched
[unused967]
airplanes
splinter
fan
persuasion
1775
molecule
դ
##iate
320
##itzer
benefited
##ง
euros
1980s
介
crete
loki
favourites
friend
campaigning
nipples
cbc
bony
guide
deserted
bazaar
steamboat
wales
copy
nassau
bmw
nmi
spencer
[unused708]
blows
modular
developed
engines
[unused867]
insufficient
least
twilight
meat
pei
correspondent
transition
depicts
want
mankind
frogs
##rix
orderly
computers
##atic
##oes
nowadays
prevent
projective
##horn
ridge
[unused951]
bmg
stump
##oja
##say
res
middletown
##rmed
##ท
thee
strain
ʌ
##chen
hypnotic
##eza
romanesque
rescuing
squirrel
##pani
rosy
[unused148]
dusk
##cano
##cape
##o
fracture
breton
whipped
bandit
310
firm
##tica
##owski
bill
revolt
humboldt
ago
tessa
typed
##ovsky
recreation
yer
##chenko
##ayo
¢
seriousness
logo
gesture
##load
tipped
battista
##ior
emptiness
##nosis
sales
hodges
forgiveness
airs
##wu
dangers
simulate
approaches
familiarity
stout
hawthorne
southampton
presumably
treacherous
butte
rallies
hasty
officials
##woman
ballet
acute
cove
##ented
communist
ェ
colonies
panther
lands
seo
anthem
##arm
mice
somerville
[unused722]
vernacular
consensus
together
hymn
##ington
edo
down
fighter
watkins
shia
regulate
consultancy
##rard
exhibitions
pietro
programming
towing
vuelta
##ɐ
version
itself
##tem
##elling
##uding
restricting
basically
hotter
drained
##長
sped
garment
##out
stroll
東
advantages
625
##iq
##ang
##gative
##odon
upbeat
##ciation
269
##nio
91
detective
adventurer
programmers
doll
[unused464]
dashed
tipping
##=
bonus
sugarcane
ম
arabia
##51
candidate
mazda
paxton
commander
##ano
reached
112
lissa
##weather
metals
henrik
と
##nched
[unused494]
ballot
##vana
dave
janata
wo
##uca
[unused63]
cuisine
helpless
afterward
##ana
downloadable
scares
located
coated
##bha
claude
julien
##ি
##oli
##bf
globe
sutherland
222
bones
robust
maldives
##ム
potsdam
aggregation
##room
fractured
harrison
township
thinks
designer
##lica
lets
endless
models
##ogy
witness
refuse
assert
belongs
milton
##rse
surrounded
fascinating
spreading
alba
farmhouse
emerges
##lish
##itz
##ivision
restricted
##fat
##智
aux
259
premises
pointless
anytime
proficient
##borne
patriotic
##vs
##ations
correlated
wins
revisions
detection
shipped
`
northumberland
emerald
frances
adorned
connectivity
lot
coverage
belize
##onis
represent
doubles
slot
accelerated
colleen
parrot
carolyn
che
mechanics
residential
##ulum
[unused391]
vigorously
boon
epilogue
etymology
##opsis
tia
pol
amara
verification
took
infant
farewell
horrors
pharaoh
manner
beverly
attraction
2020
[unused115]
trey
plastics
visionary
rations
orientation
geelong
useless
##eva
uncomfortably
cong
dominant
br
rotate
##24
##ovic
dive
carp
dessert
ship
##yra
emilio
bruins
##x
edwards
communion
establish
banjo
bhutan
teachings
keenan
##mbit
[unused240]
offender
hypothetical
orphaned
even
receptor
tinged
doug
qui
latvia
culminated
bring
stone
##新
unanimous
though
secondary
witnesses
onwards
##ao
aqueduct
caine
##cs
vectors
##rose
ordeal
安
moss
mass
wta
hotels
plumage
telescope
grin
appeal
crosses
southern
romney
swelling
marrow
breasts
##–
lavish
polka
infamous
fat
harsh
##quil
mayfair
[unused353]
##ˈ
ds
huntington
[unused613]
nightmares
gunther
1692
odor
[unused180]
moor
ineligible
м
bonnet
##mer
##child
astonished
rehearsals
##burg
terms
##inations
duration
[unused603]
anglo
signalling
birth
trivial
duffy
independence
©
basel
heavier
messenger
joy
squeezed
custer
leadership
wildly
clement
asked
pathology
annette
ethiopian
##swick
hussain
collaborators
telegraph
unidentified
##arable
moderator
cues
##ju
##cratic
bible
commentary
sheds
的
batman
subdivision
hilda
roberta
noon
athletes
157
zheng
##ossa
recalling
ferrara
taxation
##sor
reassuring
boston
flourish
discovered
##stand
##wes
obstacles
glossy
[unused346]
207
bearer
olympus
ages
##ᄋ
##icz
##tow
barangay
##と
##仮
[unused336]
[unused908]
topics
spreads
##music
shale
##ex
##区
races
realises
sprang
intermediate
nehru
very
dinah
voted
##flow
sleep
judging
##fulness
larkin
##lch
editions
age
##tary
##vinsky
townships
varying
constituencies
gleaming
dat
centrally
[unused235]
##arding
333
##ddled
550
##ta
tripoli
##eis
[unused268]
comfort
##lled
—
vibration
##★
mustang
xander
persians
##ential
lowering
amalgamated
##mith
hub
paulo
##pha
a2
294
clubhouse
[unused748]
announcer
bernardo
shrewsbury
208
sussex
##vez
acidic
honors
butcher
debates
outdoor
foyer
##was
stealth
woodrow
ruiz
persecution
sentence
petite
fitness
ɹ
erin
proteins
temple
elizabeth
duties
kristina
pr
ramos
september
adventures
##cope
claus
##„
##⁄
[unused158]
amin
delaying
sets
roger
##i
bout
allie
##せ
asteroid
bedrooms
premise
verge
##otte
others
##ids
ernest
sequences
##tone
##mura
coordinate
divides
1400
ricky
curving
gulp
##gata
1713
h
permanently
235
ravaged
evening
outta
crosby
bolton
1872
warns
madeira
lift
т
mechanism
dobson
##´
biting
fission
##tray
convened
moldova
manager
bin
mexico
nt
##ht
frightened
##mmer
##rke
eastbound
offences
##ble
wells
lowland
soprano
critical
syria
ʿ
are
gui
‑
borrowed
123
ring
participates
1740
manners
35th
channels
births
varied
accuracy
oregon
tilting
##sty
##olo
canals
offer
orient
[unused20]
spence
[unused22]
enacted
##ה
attire
beaumont
ict
gmina
buzzed
additive
crystals
radiation
powers
citation
compelled
anarchist
autopsy
water
tops
breaks
adds
dumped
[unused596]
[unused949]
!
tits
pinning
food
1628
future
richie
2012
##naire
punjab
debating
ignacio
ம
plants
midfielder
manga
##ated
weasel
that
rebellious
##tura
breakaway
opposed
bat
thinking
ethanol
##不
##py
hahn
mobilized
selection
[unused687]
toulon
slices
##ग
conversations
##ignant
traps
goddard
ac
redeveloped
countless
handles
enough
[unused856]
setup
disconnected
poverty
##ɛ
eduardo
dolphin
incentives
chartered
tumor
cavalier
smack
pressured
blackpool
relieve
##ल
inspirational
accept
renumbered
mick
retire
corpse
tess
60th
##oko
liberty
aviv
##tained
bronze
advisory
powell
forthcoming
outfielder
stiff
jointly
renew
[unused597]
brightly
車
sperm
##oxide
unprecedented
sabotage
##zing
lima
2a
shelley
illnesses
valuation
checkpoint
fairly
consumed
##weed
englishman
rpm
end
[unused589]
muted
strive
მ
##車
##rlin
helmets
##lini
##oh
73
##borg
fischer
veronica
moments
trucks
georges
affecting
theatres
airplane
popularly
envisioned
##tom
##mism
planners
temps
み
roth
arc
outset
unlikely
novgorod
induced
portfolio
##hra
readiness
324
habits
##zia
##lver
##zoo
##tech
##rat
goals
hannah
undergraduate
def
##wl
##her
tyrol
faulty
gem
julius
fare
hernandez
hormone
[unused829]
##tad
murals
[unused303]
##rle
exquisite
thriving
display
stimulus
grouped
windy
##craft
teatro
tracing
superstar
reclaimed
pedestal
addresses
continents
armando
violate
[unused263]
a1
inning
sixties
integer
##ᵢ
incorporated
merger
humanity
##isto
##ands
minute
pass
weights
##lite
illuminated
##ules
1690
darrell
joey
1770
clockwise
richardson
desire
##urities
cheshire
accident
##p
juveniles
old
flattened
[unused337]
[unused515]
[unused871]
survived
[unused563]
##阿
swam
differential
[unused923]
mueller
jockey
ᆼ
indications
sized
precipitation
exceptionally
thematic
carry
##unciation
rican
knocked
elsie
packaging
alex
##puri
rubs
ticking
hewitt
surround
posterior
overlooked
authoritative
completion
directorate
flinched
光
##ھ
priesthood
hobby
##aw
reluctant
##ock
threw
jakob
converts
chances
##tors
sure
riot
saturated
[unused425]
##tu
bengals
fascist
spit
spouse
grassy
industry
b1
##⊕
junk
uniformed
sour
coats
rouse
histories
1700
[unused146]
vic
##graphic
surrendered
galaxies
strife
##ri
battlefield
##ز
ward
420
##erson
asserting
nicky
engage
castle
inherit
soundtracks
upgrades
relegation
cinder
[unused329]
##uki
gasoline
sexuality
##ssee
whitehall
##་
tee
##tha
thoughts
unfit
movement
inspections
宿
fritz
arbitration
prom
avail
##mation
earle
administer
terrific
bud
sustainable
woke
ashok
##☆
tacoma
taxpayer
blocking
theorist
bracket
dunlop
master
correctly
notified
traitor
valiant
squared
blooded
vimes
##uance
vessels
pity
leash
graduates
86
[unused381]
仁
##keeping
[unused504]
[unused219]
adjacent
1930s
screening
175
kurdish
ronin
dormitory
fiance
prefecture
##neer
[unused765]
het
weaken
forested
##₃
houston
afghanistan
homosexual
article
bred
unification
thigh
deity
confessed
2013
##zos
thong
521
clown
##ulation
雄
jacksonville
distances
kelsey
soft
docks
##rogate
sectors
##page
tunic
specific
lend
##active
sooner
syed
magnus
##tner
##ited
ruben
airing
exceeded
discuss
cowboys
emeritus
congratulations
biscuits
surfaced
libya
consider
cheated
international
prayers
pasture
boat
buds
toward
##`
宮
integrity
hobart
lost
table
nashville
enable
fern
conglomerate
papyrus
cad
##ע
ahmad
ignoring
ferris
1803
ghana
##if
##tam
recalled
tenure
##rar
chloride
555
picking
##ptive
ghost
比
mal
ivory
trieste
tasks
gerard
appalachian
##vocation
aye
allies
##8th
parades
tito
[unused319]
##illa
[unused364]
marathon
saloon
callie
pursuits
commanders
[unused202]
gm
aft
samurai
counts
##ching
ceramic
brig
media
deputy
##ᴺ
identifiable
wryly
##eborg
alton
always
listening
##making
##ffie
undertaker
abundant
translator
lila
[unused455]
publishers
##vies
dead
##oof
cramped
##ে
カ
##kow
##ceptive
totally
##aries
1823
vibrated
surplus
thumped
##mina
##rew
freshmen
plains
perspective
carried
toro
casey
mandates
[unused471]
penguin
##non
carolina
emily
cabaret
##cies
assessment
canary
graf
〈
survivors
beneficial
rhythm
tc
##atory
##chio
padre
tuned
crippled
##inking
false
woven
loaf
visible
rounded
##文
##tagram
87
[unused117]
rich
insistent
chambers
##pore
pl
songs
travels
え
##ace
wavy
testify
cambrian
##hang
accolades
unfinished
zev
encouragement
[unused447]
##う
sidney
carving
landmarks
##ruff
chile
sixteenth
##dam
##script
402
##ig
concurrently
rudy
firearm
adam
stopping
troop
##centric
peacock
ョ
disputes
energies
oven
##ica
maya
ム
cantonese
shrinking
cooks
net
wiping
callum
##会
##ppa
shaded
data
ड
php
plunged
thumping
dozen
battery
1861
roc
roderick
afrikaans
entropy
##⋅
https
mv
strengths
handling
forwards
grooves
exists
本
noticed
bearing
contexts
##tius
[unused327]
award
crazy
crystal
baltic
##md
confident
五
hounds
##vation
merits
mere
buying
##anger
apologize
##imi
indefinitely
information
##ffe
simpler
##walk
heraldic
topping
ck
legion
##gy
##era
contestant
veteran
celebrities
[unused233]
discussing
admitted
horton
abbreviated
tackled
cisco
coincided
confronted
coven
evenings
##cans
forerunner
dragons
manifesto
##oot
kernel
basketball
49ers
bce
##leton
##par
print
mutual
satirical
fuels
[unused785]
khorasan
lcd
indies
平
awareness
coronation
penultimate
massimo
[unused373]
several
1738
15
capabilities
felipe
##omorphic
1792
##∞
nelson
##pping
##jas
fired
grassland
ax
##kson
atari
##set
stores
wilhelm
##ese
album
illumination
lays
##meter
aarhus
##ny
##জ
hamburger
psychedelic
inflammatory
identifying
##gua
1904
gunpowder
lao
wife
17th
demolition
##cript
¡
risking
##scu
beat
configuration
auditions
vet
athens
quantum
emile
m3
shiva
[unused221]
vintage
liquid
plc
boasts
lexie
secretly
[unused144]
צ
264
anyway
[unused484]
1941
material
1958
funeral
fx
mean
mature
waterfall
aliens
kingdom
barrow
tudor
economically
administered
road
##vu
marx
conducted
chopper
indonesian
##،
punk
lowell
1942
##ರ
##tino
lambert
decorative
[unused187]
lumpur
楊
balls
##vas
lately
clapped
##broken
downs
freeway
は
##led
##gel
blizzard
##fe
missile
melody
fractures
fulfilled
lifeless
raju
goran
handler
linger
payton
antigen
temples
resented
[unused95]
inventor
swallows
##pods
★
strikes
##alis
surely
mali
los
northwestern
dani
workings
candi
##宣
dialed
kurt
rifle
somewhat
wentworth
madonna
fleeing
compassionate
adulthood
pomerania
balcony
steps
stuart
lit
casually
sophie
zhang
poorly
capitalist
snyder
professional
luxembourg
rus
king
##men
format
bunker
appeared
soaking
bam
griffiths
tricks
guildford
epstein
movements
these
ellen
atkins
ik
leg
kingdoms
##−
lips
##do
erich
clergyman
flowing
abstraction
scandinavia
thrown
bombs
dunkirk
intervals
daniel
owning
##ecin
##pins
repeat
rink
手
harvesting
iroquois
jan
nuclei
header
illegally
lucivar
mortar
arbor
273
##yin
satisfy
agriculture
biking
##he
pumped
ich
rehearsal
lighted
##game
ui
wesleyan
tasting
handed
liberal
bethlehem
dali
dai
unreliable
kildare
##ilised
doctrine
destined
illustrate
kaladin
1920
liverpool
counties
fremont
##宀
##sonic
##genase
manifest
wondered
ems
turkish
expertise
##tek
[unused150]
ю
pristine
##ʊ
devon
spirituality
##icides
##е
marry
chased
businessmen
fished
commented
lbs
our
exhibited
alvarez
flashes
##formed
duets
：
brighton
##asi
semifinals
happy
patches
[unused47]
dislike
melanie
wiley
bombing
purpose
¨
obama
##sun
retribution
ˤ
securing
casa
wedge
1925
johns
antenna
##take
scene
naughty
christophe
winked
##osition
copying
##anal
coherent
nylon
##aja
revolution
sprawled
tulsa
##yles
jaipur
twinkle
marketed
nad
##neas
##bold
##llis
prepared
feed
reluctantly
midland
egyptian
statutes
##bei
dl
reluctance
flashed
##chus
##nut
uncredited
##cen
berry
1846
violin
economic
њ
bengal
##ʑ
rotten
cal
barren
prompt
##isa
##ী
premium
stalin
clue
violating
disappears
##osomal
potassium
doorbell
##scia
offence
80s
battleship
shear
practiced
braun
commentator
faults
kilometre
##на
escorted
slovak
patton
rom
promotional
grupo
guadalupe
danced
76
th
harmless
##sburg
homeless
estimates
[unused658]
pak
hastily
ideally
imperialism
outlets
laird
##nr
1891
prop
halftime
##gue
preseason
875
knights
##ں
[unused352]
##oi
weep
establishing
lucille
shootout
[unused883]
excess
va
barack
[unused840]
##gu
compiling
wisdom
emilia
jerk
streets
asher
encompassed
##arded
hatfield
competitions
ʰ
##sten
harvested
[unused966]
attorney
fathers
堂
gifts
##hae
shan
contracting
marie
bologna
warrant
##gins
ע
laszlo
##gn
starboard
##og
##elia
classic
##hedral
##σ
##rder
articulated
folly
thirty
desires
greed
attract
civilians
cameras
hodge
##ces
fixed
##forth
tun
herzegovina
ernie
intellectuals
##itors
##shan
lyrical
jens
constantinople
intimately
cursing
mit
voluntary
cites
##ada
galerie
briggs
assassins
ultraviolet
increasing
georgie
[unused478]
こ
ma
morris
##vious
hutchinson
smirked
##ca
##rail
rotor
facts
gaul
greaves
holm
##о
yuan
surprisingly
narration
senses
shrieked
having
bugs
cabinet
point
darker
winger
polynomial
still
copa
respiratory
flock
[unused482]
encounters
died
[unused736]
turkey
stretching
坂
ч
##dition
263
ɨ
grande
glenn
assisted
creeks
kathy
assumes
##ন
interred
diner
turmoil
qi
lew
joan
##hort
typical
rumble
##µ
orchestral
devotion
##%
88
[unused750]
dangerously
winged
suggests
destructive
plagued
whales
glands
##lok
##rogated
ceilings
difficulties
##ens
rainer
heritage
external
borrow
হ
loser
virgin
cemeteries
does
delivery
striker
carlson
fingernails
ordination
traveling
sd
horn
ads
breakup
上
holt
308
unspoken
buzzing
brutally
homme
cart
##sible
##americana
nathan
obvious
##ᅳ
driver
uniquely
tourism
##ition
moses
##pres
catastrophe
##rri
lo
cotton
##lf
remorse
յ
explores
proportions
天
alexia
##ula
performs
frowned
corrupt
khz
286
col
sweets
muscled
equally
tv
clyde
expelled
projection
##urance
eastenders
##rom
##lift
saunders
easy
##zell
organizational
russ
##washed
rattling
soon
bang
fingertips
emphasis
[unused359]
euroleague
starving
concacaf
tray
if
suez
ni
hysteria
mor
motor
williamsburg
crocodile
₃
database
##⇌
argent
nrhp
crying
##ser
[unused51]
syndication
det
##feld
₎
博
##eak
contrary
##bor
attendant
balthazar
travelling
portraying
twitch
hunt
##心
##ス
description
confessions
高
outreach
disclosed
##hea
reviews
flushed
regimes
meditation
##fect
haryana
shivered
##hat
##ishment
sabres
consisted
##cure
maddy
docked
court
outcome
toe
annoying
##khan
sport
chosen
porch
banning
weave
##hab
##ᴮ
##works
schumann
bourbon
musik
120
1629
guitar
margot
isles
adolescence
[unused878]
##ක
forgot
messy
daniels
rebelled
mozart
##ᵀ
psychologist
internationally
marshal
ashby
conner
sexy
##power
yen
misses
##ʉ
archie
milan
asserted
perform
fall
##oed
member
flies
populations
potentially
vacated
hutton
alta
##itor
uncover
tod
capped
ᵃ
croydon
consistently
##tidae
##aine
prelude
skepticism
##nall
behaved
##enting
##50
sued
##31
saturday
paso
sevens
sachs
ow
fivb
[unused19]
##eca
recommends
usher
δ
hadn
po
246
badge
##rook
outraged
2000s
##省
##rissa
roberts
folded
aimee
rotational
##hesis
think
increase
greenwich
employer
romero
defined
##sat
[unused186]
fairness
happier
1974
dramas
##dberg
increasingly
participants
dragging
whitish
##lace
myrtle
lowers
posthumous
fi
rub
ljubljana
[unused495]
date
recognised
oz
peptide
football
institutes
##ulton
bowing
champ
-
threatening
genera
dorsal
recruit
broom
##ipe
strewn
notation
##anor
argyll
photographed
##か
sioux
toilets
bangladesh
reprint
##rvis
##olio
rocky
[unused325]
[unused422]
rough
##а
##onia
##lius
remain
##jm
flaw
glances
##ב
##raj
protagonists
algebraic
totaled
204
##finder
breathless
##grants
fisted
shetland
presenting
crossbow
##jk
##itic
foster
meiji
candidacy
nero
ivy
blazing
admire
blow
क
##hia
inaugurated
fault
presented
over
sticky
trend
monte
blushing
checks
##lynn
[unused961]
##oise
afro
bubbling
reported
eminent
minimize
##ggle
booklet
amir
dax
thorne
stretches
denver
designated
wipe
usually
translation
enforced
csa
lemon
funnel
marvel
charming
00
muller
gottfried
odessa
bergen
miles
##tour
expansive
storms
##aday
##ն
athena
部
differentiated
₁
[unused630]
reacting
##odle
##ws
sparhawk
enslaved
immortals
##₩
##年
armour
##nad
protagonist
franchises
xu
lurking
ի
platinum
honorary
長
headlights
suitcase
fellowship
##sle
harley
reversal
##ntes
[unused536]
strained
advisers
teddy
ji
##vius
stamford
dice
natasha
afar
##』
staples
vidal
long
humanities
##bill
lateral
enzo
##imum
ryan
bulletin
º
waves
provincial
cadet
thumbs
militants
pump
efficient
parade
corporations
##oric
口
rammed
poisonous
##gia
isotope
navigate
[unused889]
##khand
##ly
1654
patron
##icated
hyun
monks
##ケ
vaults
##ᅴ
fundraising
organisations
##alla
shall
[unused832]
thumb
rod
investor
heroin
cbn
amplified
jungle
develops
toned
blind
outlawed
clock
plight
dizzy
rbis
jennings
judo
[unused566]
postponed
##zily
##ps
ᄇ
sociology
heap
[unused223]
volcanoes
##pia
oppose
searches
macau
fran
obtain
##wad
##olt
##inus
##水
regents
regulars
vertigo
flutes
abraham
chennai
tornadoes
fix
changed
characterised
requesting
veil
arrivals
welsh
tentative
vanity
[unused931]
bucks
isolate
preface
torino
alien
celebrated
compulsory
sequel
hodgson
inspecting
conservative
##lea
alert
isolation
revue
gretchen
windows
aiding
tweed
east
danny
lodging
mystical
##horpe
wilfred
understand
provisions
健
scott
obedience
313
clan
par
##les
##lage
jamestown
warmed
assume
vienna
falsely
##ح
half
inscription
დ
minh
##良
mendoza
immigrant
protects
lives
hesitation
to
hacked
##gui
##ʋ
newspapers
mao
throbbed
manila
##adan
conform
##成
lucius
ᄂ
kelvin
##son
ventures
hbo
august
##rane
compiler
sanskrit
spraying
##berman
ortiz
yusuf
prof
##len
commentators
processors
ferreira
##cl
mae
hudson
hangar
cornelius
republics
##iard
[unused13]
health
hostile
##פ
set
marseille
##յ
helpful
frantically
eyebrows
citizens
possessions
vegas
##hman
accredited
countess
palazzo
##has
nightly
evacuate
[unused41]
knock
comedian
volunteer
escorting
grasped
##kka
overturned
sinai
retiring
boredom
##cliff
warp
commemorates
disorders
sounding
ambulance
reacts
grading
inflammation
[unused798]
hugged
##entation
##tucket
willingly
ralph
diagnostic
revelations
eye
ᅡ
##gna
terminology
frigates
ominous
[unused899]
setting
phelps
fusiliers
gum
deepened
sciences
terminated
involves
liechtenstein
ot
354
honeymoon
executing
ulysses
baghdad
coaching
chef
linguistics
embryo
knows
ि
bundesliga
1945
militant
boss
perimeter
rockwell
prefer
controlled
analysis
adrenaline
sunlight
221
nadu
hours
##anda
choose
##movable
sullivan
gliding
overwhelmed
kerman
##cky
##hner
##uni
elaine
##kov
childish
toy
ore
ferocious
uranium
bureau
carlo
representing
lawsuit
[unused59]
more
##©
bleeding
dot
worries
bordering
unfortunately
rein
[unused331]
affiliates
streaming
swung
yao
##∧
traded
h₂o
professionals
[unused732]
gabe
##46
booker
sobs
catalytic
mobilization
[unused512]
compensated
plateau
jewels
inland
##yam
enrique
chinatown
lc
slide
[unused486]
[unused834]
mikey
1955
dress
shadows
benoit
dana
compete
hunts
bust
somme
sparta
antony
[unused958]
ineffective
johor
louis
chant
scenery
jang
##missive
##inator
jolly
crime
koppen
london
##du
reinforced
56
myths
rowing
##eries
1918
##sen
photographic
wharf
reinforcements
broad
7th
awkwardly
claim
history
competes
arteries
poison
plural
cherry
stimulation
blowing
glide
##auer
mcgrath
gloss
##‖
paisley
penned
十
nicknamed
nutrition
centimeters
moral
overland
tor
##olic
イ
1643
[unused345]
##hler
##yre
##iable
eruption
olson
worshipped
##ो
outlines
metz
assassinated
magic
[unused988]
erica
diversity
1900
bowls
1649
sitting
exhaust
miscellaneous
overwhelming
ign
lac
harm
martin
avengers
virgil
94
bwf
remy
erratic
##gration
childbirth
1762
oversaw
planner
abbreviation
##ל
1655
discipline
merchant
##ʻ
intersects
child
1666
wavelength
##vita
dorsey
available
singapore
##lka
option
ulrich
fragmentation
rather
आ
##ies
adjusted
gentry
hillsborough
improper
##em
stored
metallic
osborne
confession
brunei
##uet
avoidance
horticultural
##litz
tequila
necks
degree
##sons
rattle
sumner
delighted
lil
rural
wave
visas
confined
cubs
dozens
ル
woods
vicki
##美
sighing
coil
tin
buys
audiences
has
begun
oliver
##ites
chihuahua
eerie
solitude
differing
adequately
stainless
395
flexible
##bard
mortally
leon
european
boats
##dham
professions
reigned
purchases
adjective
##gled
rene
herbs
intricate
partnership
mecca
287
balancing
rankings
vast
6
blinking
stalker
fai
invalid
machines
landowner
sis
enamel
[unused911]
##ho
bruised
adding
morning
walls
rooney
##レ
utilizes
cheek
failure
attached
reservoir
invested
##ile
interdisciplinary
fingerprints
[unused423]
style
desirable
benton
assigns
genie
healy
agustin
legislator
tammy
reminder
punish
[unused694]
salt
##bant
organisation
vhs
##ime
mcconnell
parameter
_
1818
highlands
##nare
##人
##十
comfortable
sequels
##aghan
kenneth
route
temporarily
robotic
palestinians
[unused361]
pointed
lola
terrain
convict
##amy
vertically
malaysian
smoking
j
133
finish
kept
##fu
earn
##天
zeus
stephanie
freshman
正
weighing
priscilla
mermaid
mc
village
ren
mla
garner
autonomous
decisive
este
lab
symphony
biblical
resistant
cells
grounds
fae
presidents
##nob
divisional
spurs
##logies
noticeably
dream
protesting
pursed
holidays
£3
rash
colton
shapiro
vanilla
guantanamo
##static
candidates
founder
natal
registration
undercover
nelly
clancy
idf
detector
enraged
run
[unused411]
assassin
protege
##ave
money
convinced
often
##si
clayton
##therapy
##mite
manchester
wesley
coa
butt
radar
##mic
been
kelly
won
area
ᴮ
1720
adi
##†
counted
either
deficit
##永
boiled
##lby
z
building
##lines
warmly
##akh
hoarse
tavern
defiant
marge
walk
allocation
marion
##tically
##aves
justified
yamaha
[unused207]
honored
organ
justice
ignorant
jp
trainers
pharmaceutical
universite
loans
351
##ω
##ine
850
collingwood
charging
collapses
vial
hated
mercantile
##iferous
affectionately
carver
nancy
larvae
ruth
badges
curtains
maclean
subsequently
nixon
##itical
##cheon
chart
##side
expanded
possess
my
unseen
lessons
ravens
stains
iii
investigated
##apes
[unused409]
##cup
imminent
##म
sovereign
bending
painfully
earnings
ames
##rsk
ditch
pretend
lombard
ratio
scattered
750
elegant
1965
baritone
merely
##dge
grossed
tempered
storyline
afb
disco
##ieving
phenomenon
[unused203]
pigeons
swap
1996
deserves
1840
alphabet
##oran
##itas
##arney
authentic
##lom
##発
guardian
##uaries
roads
sawmill
classical
##ech
##oese
##uating
jameson
ing
draught
##nidae
naga
squid
[unused400]
hers
fused
thug
cocktail
publish
waterfront
[unused975]
joo
philosophers
##fo
shook
sen
##bian
predatory
reforming
##nus
atomic
profits
continental
sheep
constructions
##note
pickup
debris
equality
browning
superliga
discarded
nottingham
commodore
graduate
1705
registrar
assure
floor
pope
gloucestershire
##urized
update
##ej
parishes
##sy
declined
cyril
skip
dmitry
novice
housekeeper
irresistible
ufo
hoax
212
375
ambassador
cloud
majestic
##orf
inclined
refining
hormones
thoroughly
##sive
scissors
cultivated
perkins
##gree
prototypes
choice
rushed
##mins
agreed
blockade
trickle
roche
progressive
##rase
##cide
island
aachen
##tish
infinitely
dwelling
thompson
vilnius
##core
##з
burt
[unused771]
##nse
ₐ
spurred
aback
flop
sources
jung
185
cope
trade
wiggled
harrington
soaring
complaint
帝
huntsville
dilapidated
գ
florian
eng
papal
sniper
##ining
belonged
pressing
##cit
##ress
scanning
##曲
demonstrates
goodnight
177
mast
serpent
##gol
##grapher
##ₙ
northwest
handwriting
[unused814]
morton
bahamas
##rsten
≤
clause
ɾ
##reus
385
##奈
volunteers
continuity
letters
##mar
loosen
split
##ield
sic
softer
technological
ko
##ctive
vent
goo
dh
honneur
folk
parochial
chesterfield
administrative
mistaken
kathryn
maxi
artworks
ı
javier
[unused81]
[unused177]
arcs
##ァ
freestyle
##vati
##rooms
vii
astrid
gallo
periodic
##太
[unused369]
##ς
palaces
expand
introduces
stiffened
cancers
##just
alexander
aquarium
##iously
levant
blanchard
##rgeon
406
built
[unused723]
[unused140]
walking
lakes
witch
##ส
latter
modernism
##23
thyroid
trip
helium
victor
sufficient
##zow
accepting
opportunities
fernandez
copied
grains
1712
essen
[unused611]
propeller
mets
euclidean
1976
exam
sturdy
[unused925]
10th
jacob
detailed
dollar
talon
##№
ʷ
##enia
flashbacks
libby
rao
realising
reflects
installations
micah
protestant
valor
eritrea
commissioned
totaling
inclusive
increases
panted
##ன
mackay
[unused670]
##world
infants
##ಾ
##ouse
tenor
forewings
##elin
cradled
insurance
[unused387]
mad
nils
routes
##tures
supreme
trigger
shaggy
discussed
nm
wandered
vegetarian
##chaft
subway
passage
snake
commit
wrestlers
bronx
aziz
manifestation
smoothing
inhibitor
##49
##ffen
##°
anthology
choreographer
dose
attributes
##ヘ
1802
brendan
[unused209]
unmistakable
wardrobe
avila
victim
butter
[unused4]
worrying
propaganda
born
shouted
amnesia
##tung
chico
heavy
[unused685]
ա
instruments
##nsk
mba
boasted
endowed
cage
engaged
whereabouts
licking
407
astoria
vega
deterioration
[unused30]
haggard
voluntarily
bulgarian
nas
##wd
waived
orphans
##ains
vapor
shuddered
pedestrian
primitive
planes
##bourg
##ular
##ikh
continuous
presently
elegance
friar
james
1900s
evaluated
sergei
##opers
##nsor
quilt
অ
##tin
##heard
sadler
##dal
##bbled
##nism
racial
##沢
mitchell
weaving
howl
##alle
475
implied
1745
fatty
promptly
runs
##onate
oskar
gustav
1814
possessing
grease
tech
##⺩
##isms
shire
wears
adventist
persia
##գ
bastard
rios
likely
##leaf
equation
dunbar
##dome
romance
aba
abilities
##ɑ
nobody
duke
dancers
slots
remarks
katherine
muscles
resolve
scrape
peas
shoe
criminals
timing
ulster
transcribed
##ensburg
##橋
abdullah
shaw
editorial
ambient
section
becoming
jacket
hotspur
creek
अ
##lain
##aria
tunnel
carlisle
nell
stratford
##ape
motorsports
semantics
##ь
##kley
bottles
horace
[unused446]
int
sculpted
less
rana
5th
##ciency
nesting
pp
subjected
learned
ʊ
sophisticated
sailor
fancy
novi
susceptible
##jun
excited
hagen
grotesque
comment
buddha
importantly
asa
goofy
##efined
romanian
embedded
tehsil
modest
dialects
warwickshire
imam
tank
##vira
##宿
##ai
punished
preaching
##ashi
jj
##tus
immigrants
entered
##ads
##fast
sham
##cola
uefa
##mind
##द
brick
##apa
[unused842]
plain
waterfalls
beau
##haling
20
##iste
leaders
worship
noses
clutches
zinc
insertion
entity
##nos
woo
irina
refreshing
si
##nah
##ales
##mon
discrimination
sl
##gai
diver
tomato
violation
##fle
##rong
image
conductor
component
##ք
addison
÷
expose
upside
antiques
manual
widely
annexed
reader
##22
burden
interfere
##ب
sounds
##verance
director
†
pavement
tie
[unused933]
##emon
##croft
163
ahl
や
mirror
willie
matrices
peacekeeping
oversees
soviet
##mad
activated
##our
tempest
mansions
##rigue
jun
##oon
flicked
eliot
estonian
##dha
##ɡ
derelict
precision
##house
brings
forced
##onal
##rant
rival
haute
rowe
boone
##¨
calcium
bomb
##kur
quoted
magazine
messina
designed
tabloid
substantive
praying
##nia
##oit
baden
##kin
submissions
##eck
sited
congressional
2004
rasped
strawberry
crooked
##00
argentina
hysterical
comparing
##uce
deposited
smithsonian
##vant
##position
##chi
usd
##uc
unarmed
##zano
##coat
yale
unreasonable
##cous
detectives
admired
societies
misconduct
[unused501]
bash
variables
gmbh
game
##ʼ
periods
chrysler
##iga
firmly
dj
flowed
##^
antennas
leung
brooding
*
buddhist
##ག
mariano
stroking
electrification
trident
[unused894]
##19
hushed
infrastructure
ほ
##els
rite
sufi
protesters
shrugs
formally
drought
shutting
mangrove
primarily
imprisoned
dependency
aerial
147
prentice
then
psychology
overs
favorably
lesbian
দ
1777
##ław
draw
nervously
##imating
shri
martinez
##rnik
##lese
##illy
norman
universidad
inmate
patrick
expenses
##»
laced
gabby
stacy
##fl
vie
describes
decided
##mond
hughes
##tight
argued
voyages
most
°f
rhineland
insurrection
竹
jd
##ov
boot
accommodated
prey
##eal
[unused384]
##oration
baptised
pudding
interests
hauling
[unused232]
tame
332
alt
utrecht
georgina
thanksgiving
undisclosed
images
##נ
interval
serge
peggy
##dry
credentials
##nder
sherry
##eng
rescued
##eni
foliage
migrant
piloted
refuses
burrows
frankie
cis
##lag
[unused317]
effortlessly
depth
ranking
89
##ᆸ
mall
corvette
##zek
transfers
essex
assault
##ophone
iihf
paperback
emergencies
բ
hunger
walter
dev
ghent
prompting
adjustments
segregated
##下
footage
hugely
examination
fucking
##otto
307
##ש
##osta
##ajan
colour
quarries
erebidae
onward
mikhail
sprung
##plin
##ulin
ai
##name
247
gables
##ots
36
gland
marius
scholars
somber
nebula
aquatic
boer
ace
##mist
managing
[unused788]
numbered
courtship
versus
complexity
seventeen
resulted
vowel
eureka
efficiently
ratios
murmured
distinctions
##eira
##⁶
fork
⅓
directions
enterprise
面
##bham
alps
336
equivalence
hanged
entire
zodiac
learnt
##λ
141
four
##∆
ceo
awakening
induce
1661
marta
##ital
##mering
dispersed
basket
faust
scooted
hermes
place
introduction
raise
##ied
matilda
##hwa
##ة
hog
picasso
year
louisiana
peru
leslie
##sch
sh
messed
eucalyptus
doubled
sundays
prescott
horrible
landscape
blake
lau
steered
contaminated
##oman
stick
authentication
members
[unused541]
performed
obscene
poe
ッ
rejects
shrug
throat
##cco
gamer
kane
38th
boxer
here
within
finn
sensitive
interpreted
touchdowns
recommendations
##hima
##rea
shirts
downhill
slams
agreement
administration
difficult
##evsky
##に
山
dame
##isan
homer
owls
diego
throwing
painters
##љ
##xon
warning
turnbull
register
standardization
1718
intent
dismounted
yemen
cargo
ག
headlined
##ost
deposits
rattled
snort
##rade
comb
gotten
spectra
mum
##fahan
briefing
kidnap
स
assaults
lineage
permitted
nineteenth
commercial
wilde
contested
faded
##qing
[unused398]
51
chester
speedway
mentor
chat
m2
##rta
hertfordshire
repertoire
feasible
##sma
[unused956]
cinnamon
##watch
[unused342]
[unused652]
ounce
wien
enfield
fallen
relocating
ra
unified
##zar
cord
navarro
loaded
gunmen
recovery
snails
fallon
grown
14
foreigner
##hoe
tiles
reflective
infection
delivered
zealand
submarine
programmes
prospect
vip
##yson
##য
ethel
note
arya
[unused388]
1943
28
■
stays
##elman
summit
exhausted
outs
2016
##rg
bug
##nic
##ilo
ptolemy
##ings
recognizable
relentless
players
レ
##balance
wildlife
byu
##tree
acceleration
primal
locality
wink
maison
reacher
uk
individual
kensington
##ats
continual
vocalist
alley
hostages
figured
##fm
explanation
##口
##mobile
halt
resentment
pains
sherman
kitchen
releasing
houghton
##stream
kv
forty
restless
tourists
theater
crimean
opined
fatalities
perhaps
supernatural
paranoia
peat
##ifer
cunningham
baskets
matches
##morphic
judaism
##xton
##oslav
brush
symphonies
##司
composite
##tructing
consume
tourist
253
meteorological
regulating
600
probable
breeding
shimmering
displaying
##ister
promotions
found
beer
celtic
wearing
raider
ध
heterosexual
##yuki
nestor
##iated
kai
##va
period
327
bowen
1
defunct
scored
##nig
[unused456]
belfast
##rous
wrestling
outlook
schumacher
hyderabad
##etta
›
27
lukas
rally
##や
computing
##ering
##matic
czechoslovakia
sal
clive
[unused356]
crows
emphasizing
flood
cumulative
##idal
##creen
貝
##pc
espn
michaels
greater
brink
##oper
genre
looted
##ule
freelance
marjorie
citizen
##ctable
briefs
skinny
ua
cavendish
volcano
shelly
informal
[unused768]
contacts
recovering
heaven
zimmerman
tung
room
sq
reginald
##box
turtle
edmond
prematurely
folklore
drugs
sa
##wen
##tious
mono
##hiti
rainforest
[unused711]
understanding
rumor
sneakers
##き
##cher
ケ
elliott
reorganisation
undergone
spruce
##use
tries
abbess
##॥
401
franco
##roll
seeming
##tma
grasp
1658
eighth
staying
dad
horatio
vendor
troll
##enham
timor
elders
31
sarcasm
iso
centers
葉
admitting
plug
•
chrome
##也
outlaws
merton
twinned
fits
license
distracted
swim
natural
android
##hop
senior
##dim
stench
parachute
constitutes
renovated
annoyed
##nor
replicate
tapped
starred
smoke
budge
cap
prostitutes
cease
destroying
duly
fence
##ct
ᄎ
stayed
bosch
baha
covered
textiles
quinn
invaded
trusted
duran
knoxville
lock
##till
editors
##tham
generator
##trick
parents
novak
chance
duff
ŋ
intensity
##yn
##feit
chen
reborn
craftsmen
vested
##eiro
ष
movies
posed
##tes
glamorgan
pneumonia
ser
grille
embraced
disappearing
trainee
loan
ahmedabad
surrender
##pling
highlighting
##ɫ
literary
rouge
##ati
nail
##chers
##zic
”
enclosure
milos
jaguar
begin
direct
battle
intimidated
breadth
creators
##lho
540
[unused277]
exercising
##ntly
##sa
spot
84
barlow
narrator
fighters
andersen
sash
##post
differs
public
muster
##heater
patch
[unused745]
##42
empire
bolts
liable
1772
fuscous
##rius
no
hume
itv
carpet
selected
35
mario
1931
intact
disorder
intentionally
legged
islamist
stance
shirley
riots
[unused959]
dominique
inspect
right
feeling
seminary
affects
##tream
##osis
walkway
sockets
wi
petition
##ug
239
manages
lesson
##ছ
tip
##quent
pivotal
explosives
##garh
landings
heavens
averaging
salford
billions
##uge
##inton
##nie
comprise
score
##ean
sony
radical
displaced
[unused49]
fugitive
##内
heirs
recipes
republican
selangor
regina
##ss
humane
conversely
っ
sells
involuntary
##ut
governmental
superiority
suddenly
complexes
##nov
[unused138]
arroyo
cameroon
gujarati
ん
softball
##meral
television
家
sergio
sorted
colt
##bour
##raine
researchers
costume
packers
##lta
##oso
##ytic
##3d
ף
invented
sheldon
socio
way
objected
napier
chargers
corpses
##roy
##ue
response
hygiene
agile
fifties
patented
damn
lucky
http
playboy
cochin
bombardment
##frey
aero
bassist
martyr
rutgers
wallis
prairie
[unused213]
##ulus
propulsion
universally
1753
##φ
customs
finest
nana
pausing
##კ
[unused487]
cognitive
flees
disqualification
1871
pants
altogether
##ℓ
##ario
ltd
widen
[unused817]
##tooth
bench
semifinal
dispose
helmut
centred
become
autobiography
6000
authorship
stifled
ether
##ough
extends
wa
tones
cumbria
garcia
1806
##block
exhibits
dexter
[unused806]
skyscraper
predicted
##cking
sparked
rap
malaya
[unused242]
convenience
icelandic
world
suitable
iaaf
##some
koreans
##fed
leaf
[unused909]
steering
უ
ec
ibn
clasp
##urgent
bray
##iful
bases
attempts
pointer
crowded
revolver
beit
taluk
blinded
weight
[unused684]
ahead
plaintiff
encounter
constrained
human
##scopic
depicting
archaeological
polite
##rcle
motifs
mildred
kiran
##的
viceroy
年
expo
##pta
fifa
halle
pa
divorced
cars
harding
##ہ
ך
berman
spending
174
shots
##mack
##ψ
firefighters
spirited
someone
500
hua
lehigh
##thor
##س
gotham
⁰
overture
costs
elgin
elephants
gi
authorities
bullet
sphinx
definition
diocesan
judges
diplomatic
[unused672]
mrs
風
canadiens
[unused21]
##ob
handle
mongol
nl
tolerant
[unused441]
##gaon
ہ
fledged
redistribution
ホ
revival
sulfate
walkers
sonata
pau
prejudice
adaptations
shake
bc
relief
[unused962]
stade
wasting
unease
##200
prayer
[unused453]
functionality
scrolls
plush
reigning
##rano
commanded
##thest
sometimes
##ducted
beans
（
philosophy
[unused78]
specified
policeman
addict
dolphins
severely
staged
xiv
dioxide
notorious
dynamic
##age
korean
smiled
bulk
##cula
levin
##riam
danube
##llan
professionally
craftsman
jonny
ł
apes
fabio
##red
crossed
lille
lulu
assign
sunken
departed
shah
industrialist
slam
broncos
broadcast
graphics
##gger
string
buick
porter
cents
##ᵒ
##«
kristen
##貴
[unused716]
focal
##ndon
##eo
fort
progression
persecuted
##′
contradictory
##jon
original
[unused549]
##ito
ambitious
hesse
reorganization
ode
ching
##drik
##ur
quincy
cullen
pilot
mixtape
##usions
lynch
chandler
pornography
##cap
were
##ative
contributors
china
likeness
knesset
signatures
positioning
adherence
nod
declaration
willow
winkler
##վ
diablo
diaz
mornings
##cier
##liche
galen
ussr
acquired
implication
rugged
##lem
dhabi
sci
##hur
voyager
homestead
partridge
forgiven
hickory
3
academies
varies
##15
##row
coal
oyster
bangs
staging
embark
gunnery
moth
reacted
ask
destinations
##থ
circulated
punches
musee
24
attributed
failed
recession
immaculate
biotechnology
1662
[unused132]
extend
łodz
holy
submission
neutral
##grad
i
##bay
erwin
shuttle
minogue
anders
quintet
marshall
lady
##ned
meetings
notre
expert
nape
##cb
archduke
sewing
sevilla
[unused436]
##ள
tack
scandal
indicative
stillness
1743
anatomy
affect
questioning
##dina
[unused703]
title
racetrack
responsive
litigation
##rized
aug
##ckle
telecast
endured
retrieval
clinical
isaiah
##veda
spinal
lebanese
reflections
companies
tool
##ical
catering
##tility
hike
##sl
dazzling
扌
##tara
##ュ
##rne
jiang
drain
pines
worcester
##ggy
offshore
defects
の
boring
pronunciation
launches
sapphire
##als
##ul
median
huey
luton
歌
choked
collins
reforms
吉
knuckles
##gi
laureate
expanding
temperature
circled
fifteen
gender
unnecessary
rhetoric
##ulated
cities
titus
dark
##tag
##vine
ナ
258
erik
dwarf
reset
prasad
guts
tended
wagner
##bed
[unused378]
##ista
dinosaurs
statue
proud
agnes
newscast
nato
positioned
intake
lacrosse
complementary
##ᄌ
sold
neighbor
slater
hammered
compounds
christians
weimar
accelerating
olsen
council
marc
champaign
exist
facilitate
prosperity
documenting
##ooped
geometridae
##ances
##open
analyses
##vna
mei
melee
respect
mg
robbed
exported
distributing
mused
[unused637]
queen
enthusiasm
painful
[unused767]
##lett
artisans
martina
mohan
bodily
##川
hopefully
leaving
wessex
cable
##朝
cruel
diagram
swimmers
stockings
serialized
states
evangelical
##vill
cent
legally
auburn
##街
maud
makeup
uniforms
[unused311]
##hampton
situ
##₅
##lyn
grimly
##ier
[unused211]
aging
aj
mcgill
re
##kyu
##enne
##安
subfamily
##დ
specialized
60
exact
alaska
27th
[unused306]
obe
ь
hindu
##lit
barnett
[unused395]
betsy
oder
chang
whig
[unused971]
winner
irs
dia
surprise
[unused513]
[unused646]
thirteenth
warden
boarding
checked
##ignon
roi
⊆
##tip
##dial
heller
##lten
simultaneous
##uche
chemistry
buckingham
lviv
derbyshire
[unused162]
r
incredibly
1840s
pledged
threaded
donnelly
##ᄒ
##nds
councils
##dar
##dilly
federally
##青
pic
hara
burying
thrust
notices
##ー
craters
##国
redesigned
branches
jonas
tu
##ð
##inae
capture
specifically
painter
155
ら
hokkaido
doors
alone
produce
olive
transform
brilliance
nanny
successes
lack
tramway
propose
hosting
1923
[unused76]
mgm
scripted
oaxaca
dil
interviewing
profound
[unused415]
##hips
լ
alter
spite
##dos
jock
fist
[unused264]
mates
tarzan
magma
wilcox
saw
sticking
grasslands
rip
enlarged
territorial
coleman
tow
##’
size
per
printers
bequeathed
permission
copies
oval
[unused437]
gathering
syracuse
hammer
puddle
conspiracy
64
ᅵ
expressing
process
##iah
insulted
##nous
tennis
imply
devices
##lb
bertha
##ை
legacy
freedom
shipment
enrichment
bibliography
aerodynamic
uncertainty
expenditures
eu
worry
autobiographical
goldman
clauses
##dhar
rides
statues
bribery
gifted
1744
encompass
freighter
##rf
replica
controls
targets
clean
elliot
##fare
breed
quicker
malik
austria
regulator
observations
downing
chieftain
ballad
remodeled
fallout
karel
bleak
buena
33rd
emerge
##forms
estate
mir
##lster
ћ
medina
ensued
medium
toulouse
opens
##baum
freddie
carol
proponents
refinery
##ffi
simply
snuck
linebacker
sb
##pour
[unused831]
1948
juicy
appearances
collapsed
theoretical
dea
cam
truss
connections
machine
trolls
wrinkled
swell
##zam
##frid
blush
precursor
believers
laboratory
simone
##sume
hilarious
volta
puppets
〉
symbolic
bessie
imagery
suspicions
operate
fatal
schubert
##ras
clapping
##я
vermont
endings
consciousness
lithuania
soloists
alias
retaliation
##br
306
arose
[unused467]
リ
fitted
##ᄀ
##ped
[unused990]
versatile
##gas
##ians
folding
stephen
sofie
##ћ
##sing
##aran
scoffed
raw
##sta
##dle
[unused797]
[unused737]
dormant
squads
business
angered
##film
ruins
produced
jana
engineered
##ety
##ₘ
[unused476]
measurements
magical
fiesta
fearless
abby
skater
americana
ে
mk
gained
creed
##愛
fever
[unused903]
guo
voivodeship
wickets
##osa
verona
inhibit
[unused520]
##nx
rhine
##kon
processor
prototype
disgrace
enclosed
chop
mcleod
philanthropic
ش
##ald
between
##ometric
distribution
considerably
jozef
inhabit
singers
add
bright
郡
##cao
odisha
##nka
cougars
tremor
##kovsky
approaching
targeted
typhoon
terence
tasted
starbucks
##ว
ozone
fa
aaron
reviewing
##vani
##щ
ད
believing
motorcycle
##iling
##mple
cambridgeshire
clandestine
comparison
abstracts
silhouette
explanations
gs
iec
jedi
seduce
anticipation
[unused17]
enjoyed
informing
辶
##gne
leinster
##edging
anarchy
inability
error
guitars
reused
ₓ
as
sino
confederates
miranda
tugs
##nga
##any
entitled
ecclesiastical
##sai
白
##uso
##ᵈ
jazz
mcgee
deeds
accidentally
subsidies
congresses
##door
##ual
withdrew
##omo
reformation
significant
##quay
communicated
outbreak
##tian
concordia
twice
excelled
fringe
bury
desmond
searing
sweep
originally
spoon
clustered
tendency
ankara
dodged
explicitly
forever
ل
straw
axle
sixth
##ick
alsace
##isch
interiors
tales
ta
##cat
မ
concerning
chronic
eats
strangled
wages
##zio
shafts
brianna
dmitri
translating
norwood
[unused898]
organizers
cliff
lover
loosened
segments
galicia
##lais
ibm
[unused608]
peerage
opinion
royals
brightness
[unused516]
empty
linguist
alcoholism
existent
inhabited
1695
concludes
filing
pumps
mined
[unused562]
##using
syriac
marian
##mbo
subdivided
##isation
contrast
[unused978]
boyer
pouring
sentences
##phobia
ђ
snapped
noun
dictatorship
##su
piccolo
necessary
cholera
everest
ronnie
untouched
expects
erskine
qur
##lim
jain
silenced
realised
polished
##博
doubtful
raised
mug
baku
coded
hiram
masters
blown
##tta
owed
##try
ュ
occupy
choir
poet
##fields
##子
reporters
baroque
##uke
tibetan
spacecraft
coop
wrote
er
##kong
stole
provinces
pursuant
cardboard
songwriters
cm
saskatchewan
lexington
raj
criticised
##kir
fontaine
##kki
eyeing
unaffected
boom
##ishly
ₒ
thence
beaches
##thes
properly
##hri
##arth
terminal
sociologist
tree
nonfiction
conscience
##dian
nostalgia
selma
♥
wil
peters
ɫ
defeated
resignation
ann
##eley
intrusion
massif
##gano
jamie
higgins
poems
[unused755]
jin
allegations
##itaire
blog
schools
krishna
dell
blend
floral
##¬
[unused922]
##dah
aspiring
pulling
auction
skeletal
kabul
reprised
##∘
missionary
hitch
jacques
stevenson
solar
fastest
macintosh
organs
##ии
sentimental
salvation
##rator
hellenic
transformations
doctrines
pan
戦
124
##rned
moaning
mina
rooted
4a
limestone
##bi
##etti
switched
modernist
stimuli
deeply
deposit
dominic
aside
big
##∅
adapted
privately
excerpts
stupidity
dec
century
thirsty
patient
##cating
##¥
##bble
sammy
corrosion
swiss
queer
neurological
[unused742]
newly
fuel
documentaries
emir
མ
doris
contempt
vertebrae
nirvana
gems
ripping
center
cristina
oxygen
santo
##sant
ъ
mendez
rosewood
##llo
sweetness
waterway
arrangement
##lastic
##rdi
tango
inuit
parent
host
##cho
reorganized
309
ᆨ
reactions
moaned
mongols
poles
this
confess
##skaya
islam
italy
libraries
cindy
1987
##lete
barbara
disease
##llet
reducing
gate
sketches
ambitions
diane
commodities
skyline
incumbent
elderly
dammit
vocal
licence
noted
prevailed
seated
canonical
##gan
hunters
##bon
darryl
##fen
referencing
snarled
##own
giants
infancy
pga
menacing
chemicals
cheerfully
##რ
##ido
e
willis
attracting
##khov
lights
technique
1731
mix
gains
bleed
augusta
book
ᄉ
£2
input
##ල
##ddling
quest
kang
hey
mirage
陽
365
trier
slept
##zzi
ao
lace
iq
austen
evelyn
muzzle
ヘ
leo
1837
##rove
pedersen
enchanted
rio
honourable
bodyguards
specification
fertility
[unused735]
romano
gabled
[unused305]
nguyen
botanical
##ties
derivation
anhalt
leicester
##pool
proved
contraction
prosperous
415
voiced
hospital
ernesto
##drome
##oud
garments
##ately
chiang
buffer
##iko
##eres
##sso
ogden
benfica
parentheses
doc
石
compliment
angelina
hepburn
##alic
hillside
compose
akron
##nton
##lateral
eaten
adolph
trial
labyrinth
twitter
feels
shea
raphael
ryder
sheng
##rled
trouble
##ind
თ
narcotics
ian
precinct
taxonomic
insistence
1822
had
metres
munich
geographic
zambia
prevailing
##ced
##eia
coldly
grunted
clifford
eat
israeli
effectively
rr
descendant
overseeing
implements
alleging
vaguely
situations
filling
shady
marsden
[unused954]
doherty
##ₛ
fibre
thereafter
##ocating
versions
rabbis
##mir
carpathian
##bula
##eer
reassigned
bradford
nottinghamshire
wand
rumored
warm
1688
jo
persistence
£
underwear
gothenburg
market
dick
change
mantra
##ill
predator
polo
structural
howled
##arians
conclusions
##od
radios
monique
january
##ison
##加
distance
ciudad
bowl
sinatra
##ₖ
legal
abducted
delays
rolled
vargas
ignored
ceremonial
sob
m²
chip
##rued
demolished
them
groningen
hive
seldom
connolly
hobbs
[unused539]
method
##ray
vamps
##lord
contribute
▪
##ₓ
bolivia
[unused458]
1809
ɛ
darwin
khalifa
judiciary
explain
₤
olds
##rot
exhibition
85
como
ellison
severity
playfully
142
cinemas
continent
pest
fastened
cigar
purification
npr
coyote
bottoms
apologized
clear
athlete
##ц
sheet
force
currently
##vian
##logists
arboretum
##ywood
season
[unused904]
1889
エ
ludwig
##gging
cork
proceeded
fellow
goddess
bohemian
washed
[unused247]
florence
immune
cafes
##ར
immersed
occupied
sent
friendship
110
dorset
vibrant
trader
landslide
renaming
##bner
floppy
minas
soto
conversion
cheerful
adrian
telegram
debuts
##ⁿ
)
admission
loire
870
禾
[unused827]
shooter
disturbances
deteriorating
maintained
permit
##ttered
imports
dans
##bah
than
404
stomped
囗
[unused583]
##ssed
peeking
patterned
assignment
bow
ana
membrane
deliberately
rebels
guerrillas
##trip
trauma
carriage
bruce
taxonomy
rejection
reactive
mister
benz
stampede
filmmaking
jane
independently
donate
watch
##nbc
dhaka
mandal
regularly
terror
accommodate
##lic
norwich
francaise
powerhouse
ᵒ
##over
digest
##sation
##bler
##ification
nigel
liability
bouncing
##iculate
whenever
[unused16]
##tas
rested
1778
47th
unnoticed
downloaded
##dini
thus
drunk
##haven
directorial
marlins
breaststroke
##ف
skyla
bangladeshi
##inate
denmark
##⁻
audrey
##ament
soyuz
homecoming
pregnancy
werner
##ont
supposed
little
bringing
bobo
hem
bags
heal
critique
recruiting
##imo
tr
millennia
refurbishment
##lars
fcc
francis
##hony
…
##tar
hydrogen
utilized
weary
iucn
warren
auschwitz
403
walton
collect
uncertain
acquisitions
sees
shannon
rm
cozy
hanson
[unused763]
drafted
raion
rotating
##orescence
snowfall
##ska
couldn
confronting
reply
payment
[unused524]
curiosity
girlfriends
[unused607]
##udes
rudolf
##ize
[unused907]
problem
disappear
pregnant
respectable
engagements
juliana
meredith
329
##bians
defeating
followers
caution
##い
##tions
ions
##wari
##tracted
mcmillan
essay
serials
guadalajara
reading
rocket
bourgeois
299
237
botany
denotes
bland
gentlemen
butler
toad
mundo
##ities
##ga
257
partnered
lexi
alla
panda
winslow
##lovic
box
velvet
bend
skeleton
##tier
sharif
apology
beast
##հ
##ssar
batavia
##む
pinned
##isk
licked
demo
smoky
parliament
altitudes
[unused653]
##cision
##evich
shade
bromley
kenny
seaside
[unused714]
inequality
yours
4000
[unused928]
spatial
richard
element
234
scratching
weigh
transformation
branding
serbian
columnist
subsidiaries
[unused440]
netherlands
navigable
nacional
clothed
books
required
##bilis
triangle
kolkata
ebert
track
colonists
exposed
devastating
lakshmi
##carriage
##tite
subterranean
##←
##ivated
symbolism
##wat
andhra
hague
intervention
flair
graduated
imagined
shot
collaborations
##gged
##ddin
joining
ignatius
##games
##worth
ukrainian
salmon
genius
simpsons
how
jesuit
##belt
[unused989]
ib
[unused943]
but
syrian
wembley
##ren
carthage
##tation
cobb
##海
##ured
##uit
evolutionary
[unused534]
satire
weddings
solemn
##eye
##tter
285
milling
mateo
composition
bennett
nothin
ting
♦
picks
sharp
tug
evaluating
930
##ques
##ela
##nce
compartments
hercules
gao
heiress
##het
##nac
related
##layer
sins
chronology
1786
heartland
offensive
andrea
sweeping
mab
chaplin
##ess
newell
scorer
rectangular
collectively
rovers
hitting
target
gaza
##kers
privilege
[unused321]
riding
con
rev
basil
approximate
tuning
ii
nasty
##xious
oceans
[unused900]
##gam
##uven
##mas
##dation
peak
freedoms
billie
unmanned
dade
orbits
##oids
bombardier
ই
forest
mineral
workplace
donations
pier
signal
sanford
jem
birds
น
bandits
bilingual
』
##link
distortion
biographical
honolulu
virtual
amend
accuse
cheyenne
feeding
forceful
maritime
rib
cadillac
slug
alexei
bk
##icia
gerais
devastated
enforce
mandir
##oning
vain
posture
##avi
##pants
##ই
musa
1852
@
citations
bedroom
##aceous
endeavors
gastropod
perpetrators
missy
##fies
サ
##gic
trademark
##ი
##ls
ida
vicky
##dav
mutiny
shouldn
##iques
elite
ceylon
raid
brahms
acheron
conspicuous
communism
han
swami
1896
silesia
robb
appointing
overwhelmingly
signals
trait
compound
hissing
naive
gary
##stis
##oy
sin
constraint
agency
white
##phila
stockport
visa
morrison
detrimental
uprising
##tton
murderers
jump
georgian
posse
captives
##न
##ip
retained
debts
peaks
km²
savage
itunes
##hol
cruelty
easiest
cavern
##jet
providers
##rton
mysore
outputs
[unused799]
atoms
fredrik
webber
simulations
election
fiction
alejandro
father
grandmother
blast
um
oil
evergreen
daily
adjustment
negotiation
unlawful
定
##scoe
cane
tormented
willy
agreeing
sensors
seahawks
debated
##wine
##oint
##gli
landed
inhabitants
mil
[unused872]
formats
claims
rosie
ε
squadron
##stra
ref
voices
##軍
folder
control
essence
nora
craving
casting
northward
serious
##coe
del
photographs
##grove
classifications
[unused934]
##iani
put
diameter
springer
bolted
uploaded
view
salamanca
##com
producer
##ame
strengthen
curved
marvelous
##jana
wheel
avenue
##how
##free
write
musical
rumbling
lane
babylonian
observer
##stituting
mvp
examined
talbot
astros
swelled
susie
huron
tierney
##am
[unused87]
##w
fish
prominent
##runner
shopping
lacking
duel
rhythms
##hani
siberia
akbar
##ₜ
##シ
[unused693]
facto
keynote
embroidered
ruling
##utation
ʉ
fronts
oh
sofa
##ths
designing
hires
glancing
transformers
##aer
##sf
##reen
metadata
phases
soothing
tamil
gunnar
violinist
manuel
##rangle
##points
##sin
##cus
patrolling
script
1804
∆
saga
cree
227
ट
consul
##ك
##view
##メ
niche
futile
philip
##ocene
barr
attained
®
##st
##bala
workout
toxin
##imus
buildings
発
hp
ต
play
masovian
holds
page
kinetic
lister
girl
freezing
coca
cheeks
sight
gen
tiger
feedback
cancel
mesopotamia
##mber
proctor
##insky
א
madness
samuel
sunk
marguerite
##shaft
michelangelo
##rak
antigua
woken
61
trailers
silk
[unused449]
jacobs
100th
##dded
vodka
snuggled
existence
##lei
proves
especially
劉
rosenthal
##kis
1788
payroll
regarded
viewed
back
1988
runner
##aud
hidden
##す
realizing
7
50
##ث
##oides
commemorative
##স
parted
mortgage
documents
unexpectedly
hydro
spikes
poppy
packets
gases
uncanny
[unused778]
morality
teens
circulating
mccann
honor
botanic
apostolic
ridley
criticizing
##rica
seneca
##ues
jews
dissolution
livery
lim
hardy
[unused253]
##um
sensory
norms
topic
shine
filled
siena
commencement
vinegar
rights
frigate
borneo
zenith
wetland
obeyed
zac
unable
1908
bodied
neue
##tia
transcription
red
turtles
dictator
fronted
southernmost
##uez
sg
executive
dripping
plaques
huffed
workers
spy
perpendicular
supporter
1630
embarrassment
1838
paddle
fenton
##ᅧ
popularized
##hiro
dated
sousa
proponent
bikes
chattanooga
disrepair
hee
##ego
##hak
battalion
opposite
drawings
severe
loved
liquids
flight
squad
spartans
extra
carriers
stars
jesuits
pieter
1748
##ص
minneapolis
interventions
[unused705]
xi
vfl
candle
##outh
dar
[unused880]
⇄
collection
3d
tune
drifted
likewise
belong
permits
jealous
fossil
crypt
uganda
nurses
cried
bra
##hart
shipping
front
parcel
throbbing
islamabad
stemmed
garde
kellogg
gaps
seizure
president
##relli
kylie
greensboro
miracle
inhuman
asteroids
##ched
multimedia
ه
ivo
madeline
silence
―
pause
benji
contra
tomorrow
##ミ
sector
weaker
bravo
##囗
[unused668]
transport
marco
##iz
wedding
accessibility
##mps
fortified
mascot
stylistic
negro
allah
bellevue
##|
recognition
advance
megan
caused
recaptured
[unused665]
filmmaker
blackburn
jurgen
##ル
seizures
drug
##ents
continuously
forces
tribes
horde
library
##rmi
cop
rosary
june
tossed
participate
##ige
##尚
##foil
elementary
simultaneously
spiritual
shrill
##gler
threatened
[unused810]
1776
okinawa
differently
acquaintance
龍
[unused905]
ᵀ
roaring
easton
##vard
debut
myanmar
defaulted
enemy
ク
contracted
prefect
66
ducks
deborah
auto
volume
##feng
fourteenth
##м
ง
39th
innsbruck
1798
182
strip
gu
trillion
may
subsp
artistic
tang
humiliated
principals
terrace
nationalist
distinguished
##‐
poetry
full
ignited
plunging
jensen
communications
[unused976]
ي
##!
doin
retain
##bing
##t
torah
whispers
grandpa
culminating
negligence
dialect
medication
insurgents
rests
deeper
ratings
writing
profitable
com
genome
buttons
butterflies
bladder
commitments
soundtrack
ancestors
dino
simmons
comply
davies
monarchs
##chang
transmitting
##yu
seymour
contained
at
performers
mma
tho
見
observes
sydney
zeta
hurts
##ɬ
spoiled
malta
atkinson
france
ice
abigail
aromatic
elena
kobe
imitation
1659
behavior
##wai
dissipated
involve
æ
posted
bids
reuters
1950s
cn
soils
##person
##rland
##uma
clarence
contention
devin
haiti
turin
crate
biography
dual
keepers
volatile
00pm
##kic
killed
ო
##ally
alliances
computer
load
##bina
malay
ᵈ
ridges
processes
sudden
##utus
maybe
##nis
##emia
##75
risk
##pre
1800
～
researched
soho
party
imaginary
[unused393]
comics
blacksmith
systemic
mahal
themes
protective
##bis
memories
graduating
smeared
2003
switching
daughter
frontiers
##ti
ɬ
[unused582]
gorilla
##jee
seed
cuts
deities
shit
toyota
179
referenced
recent
algeria
##graphy
134
condemned
tread
periodical
ninety
##roved
[unused633]
##kiewicz
テ
street
gus
ramps
constable
deutschland
salute
salvage
angry
1764
##sier
relegated
voice
mint
libyan
urges
spectacular
colored
somalia
remembrance
l
ken
tents
[unused605]
sven
onstage
##os
cover
sandra
lap
hut
rallied
crowns
landscaping
automobile
[unused902]
##iro
portland
capital
numbering
##crats
[unused399]
consuming
cautiously
sarajevo
revealed
indoor
##rm
##sio
chet
treat
'
emerging
formulation
rumbled
georgia
wooden
‐
seats
lore
disperse
fuss
[unused27]
champion
##ware
##tou
[unused725]
decades
289
numerical
revived
candace
♣
orbiting
popped
arbitrary
cutler
⁶
sides
banks
ا
anatolia
jolt
##iec
seventh
reflected
rca
##lio
ξ
signifies
plunge
##sau
objectives
clade
potato
[unused782]
onions
transportation
intercollegiate
primaries
cfa
fragile
physically
##eering
[unused521]
##iance
iberian
##vitt
everyday
offs
migrants
replacing
new
↔
simulation
1845
grind
ambiguity
##ram
gaming
gilles
help
172
experienced
##tling
gaga
##ʳ
detecting
muddy
asset
neuroscience
fireplace
output
filed
##hta
middlesbrough
solemnly
francais
pearls
##hin
awarded
als
rosemary
distract
din
oblivion
listen
welcomed
picturesque
##lly
abduction
##dgets
ʲ
power
engine
asha
[unused265]
stereo
majors
##pic
assimilation
expanse
hurting
tna
plastered
[unused56]
gran
##tology
##endez
ˈ
##frame
tate
[unused560]
malcolm
1784
saturn
ɲ
##gh
##春
jagged
unrest
namibia
lu
heroine
щ
carrying
charlotte
guns
characteristic
mughal
epoch
robbins
shelton
##⁹
##law
wicked
unemployed
price
rose
middleton
exceeds
[unused403]
bosnian
crab
chao
stern
##osh
144
praised
##art
watched
celebrity
greenberg
stylized
##ural
eyes
specialised
##cology
frowning
each
josef
dukes
weakly
naval
##rations
tease
116
##kari
brethren
coordinates
[unused926]
##た
ae
myself
chill
lincolnshire
##ett
##acies
compromised
##oca
leeds
playoff
nw
cruiser
tsar
o
salts
##tive
##事
[unused503]
consideration
blackened
beverages
[unused483]
cricket
restrictions
tour
melissa
hq
glued
##lz
##nson
jar
ħ
146
elk
##☉
も
##nti
omar
##tein
crusade
[unused561]
##ef
##ttal
fanny
##riation
timothy
vision
weakness
joel
##ᴰ
shops
##ᵤ
##ole
soo
armoured
sean
گ
##cting
##beck
ʻ
limit
arcade
speculation
ark
robber
leaflets
↦
vans
angola
malayalam
obsolete
outspoken
controller
internship
psychotic
se
nurse
madam
##loaded
comic
galleries
apologetic
except
233
##ciful
barbed
icao
tingling
##介
##b
fell
affiliated
piston
problems
struggled
senegal
builders
##yah
showcasing
dialogue
##yle
1906
publishing
helene
ld
shudder
kellan
tablet
##ates
##eration
neighborhoods
##tage
##imate
fans
expensive
contiguous
##stones
##01
drink
twelfth
rajasthan
##aris
assist
chicago
drastic
partial
summary
##sett
strasbourg
combatants
waldo
rangers
clouds
antiquities
##uded
corners
lovers
grabs
prospects
infiltrate
cabinets
##rky
##rral
##ᅢ
[unused753]
##bella
balfour
player
c
##ρ
nanjing
vibrating
##cana
##moto
helix
rower
##ю
wren
solely
acid
elisa
##erton
cy
hail
gabrielle
protest
macleod
circuit
244
##cards
transcript
pamphlet
unlock
[unused215]
rhodes
bartlett
reassured
enigma
##raf
relevant
##yne
##due
laughed
cruisers
abnormalities
glaring
epithet
orr
intelligence
##dad
zoning
behold
1604
##naut
marriages
independents
##cz
46
scouting
mathematicians
proportion
##hum
wounded
willing
paired
ancestral
[unused833]
oliveira
mouth
custom
##way
liter
義
decreased
afl
accounted
insisted
œ
505
mount
wakefield
##sted
##ment
##ze
recycling
bayern
knots
ו
√
viii
downstream
decade
##ific
cushions
gregg
ں
gerald
1839
nursing
211
ರ
governance
##ffle
substitutes
[unused24]
possessive
scholarship
##neo
##rz
psychiatric
proprietary
decommissioned
uber
robes
cabbage
fates
visual
aimed
[unused28]
loomed
馬
span
humble
##;
[unused189]
nikola
pre
audible
craved
theologians
##ager
communicating
luca
snow
foremost
##ala
##xes
income
valve
[unused296]
dubai
ios
types
convicted
heart
indian
[unused727]
##ub
kansas
monopoly
vines
sired
subsequent
##itis
identities
[unused33]
朝
1924
nobles
##ou
microphone
##क
redemption
cortes
who
uae
reconstructed
hockey
options
##ivating
riff
apologies
##sir
optimization
particle
##↓
topology
nursery
kinda
disagree
##escence
universe
##dra
coat
shepard
smiles
##cala
remains
suzy
possession
bathrooms
waitress
prism
wars
solos
overseen
herald
##plify
didn
churches
mechanical
techno
##num
chases
tissues
principle
airplay
combinations
म
##cased
##nc
sad
underside
snatch
##park
rabbi
hen
calhoun
##nir
##tium
noticing
diaspora
cambridge
##ten
indirect
rating
barnet
dos
mt
##ago
[unused690]
glare
oman
bp
greet
##ume
construction
doubling
jogging
staten
##郡
accumulation
filmfare
dal
longitudinal
##dice
ז
temeraire
give
laude
1736
ւ
groom
[unused544]
racers
monarchy
[unused683]
stripping
bradley
turbo
[unused572]
##大
recital
##マ
ucla
vest
##balls
curator
picture
resembled
visits
pricing
##flict
ტ
[unused405]
solution
unreleased
animals
improvement
##sto
churchyard
dissertation
ways
contemplated
contentious
##bling
##athy
ʔ
distracting
urban
##ह
collier
##י
##tly
vow
##fr
belgium
praises
britannia
[unused619]
parked
##گ
moderately
biologist
munster
crawl
##rchy
[unused585]
prem
whitney
[unused930]
moderate
##car
seville
transparent
croatian
##zziness
##schaft
##ssel
##igate
##enko
charleston
courtney
fucked
differed
spokesman
forehead
cafeteria
scientology
gps
respected
capitol
##‿
african
alfred
boxes
hal
projecting
##udy
ngos
rejoin
costumes
wandering
volkswagen
t
##♭
juliette
naturalist
##te
earthly
##ard
teenage
[unused165]
shared
fairies
culinary
ashland
##scan
bonn
lindsay
chapels
##ɾ
longer
##戸
unless
lloyd
##eased
spd
##us
casino
29
##cks
educational
##lices
fortunes
discussion
newt
##ᄅ
[unused324]
singer
skinner
##light
threshold
55th
orion
gideon
generation
##chemical
beyonce
weston
firstly
plantation
dashboard
##て
heavyweight
##oki
demographic
arson
##ute
taller
##nock
##so
succumbed
##ec
incarnation
patent
##el
occurrence
confront
homes
proper
jeremy
looming
##pps
retorted
advocate
##zy
procession
raising
cf
testament
project
ahmed
bristol
##oda
##eyer
agrarian
rooster
solitary
logical
crafts
£1
##jia
need
magnitude
micro
squire
descended
byte
れ
gang
[unused655]
famous
##kar
motorsport
expressions
capturing
##utive
##sław
##idad
capacity
grimace
[unused96]
##with
##ttes
##tees
defeat
levels
glaciers
confesses
squeak
apache
##ema
lia
protectorate
cares
pry
[unused54]
##‒
1760
fielder
best
removed
wynn
polgara
rookie
##yi
[unused977]
##wyn
##rian
walt
uc
unlimited
##lo
[unused365]
federer
agent
climbing
##bach
alternating
##nty
cannabis
settlements
excavated
sandstone
##nish
##talk
##jiang
α
durga
eisenhower
##vd
crambidae
casual
##igny
multiple
hierarchical
1849
[unused641]
suspended
gabon
photographer
organized
showered
regatta
champs
k
panels
bloomberg
##umen
benefactor
∧
harmed
tapestry
##top
performance
doubt
1752
theories
##本
helena
curl
hitter
##rrigan
device
teenagers
##ructured
よ
covering
pin
##zawa
τ
maddie
scattering
shortlisted
beauty
rebuilding
tournaments
##ji
municipal
armistice
##eau
##rite
arguments
kits
danzig
waistband
##hard
and
entrepreneurs
360
##տ
realise
##mill
exposure
publishes
ethical
held
teamed
agricultural
poultry
newfound
faa
ragged
excluding
worth
forcefully
bedrock
cups
‡
histoire
vr
[unused638]
strangers
##gence
thanked
hurdles
bjorn
derrick
clemson
##idae
##mie
employ
petersen
aftermath
surname
calmly
∘
tom
surroundings
elects
supplied
[unused333]
##front
commercials
phosphate
amherst
markedly
idle
sidekick
heroism
arabic
coast
indicated
robbers
activists
wasps
definitely
bun
donetsk
linden
flickered
oxford
aided
touched
leaking
ե
thursday
criticized
224
herd
dowager
生
ර
pacing
cast
maggie
crawled
tomatoes
versa
manning
##ride
den
ammonia
clarity
galaxy
##צ
fraction
reinforcement
poem
yuki
deformation
##¾
boating
ambiguous
gap
actions
playground
introductions
1756
westchester
term
sterile
##hole
dirk
##rino
goal
##ina
anonymous
consular
purchase
hansen
nice
flick
mhz
m
bamboo
repeating
melodies
hottest
westphalia
physicist
skylar
sniff
backs
assisting
experiments
upstream
turbulent
##eche
fey
050
prices
renewable
cheltenham
kat
addressed
ara
governed
wary
peanut
secretariat
nighttime
igor
##year
##kko
##rag
lenses
fidelity
##a
bestseller
##ism
##stone
##400
instructed
tasmanian
pounding
groin
shame
replacement
vault
sensor
unlocked
licensed
ferrer
wish
##uli
competent
##water
1917
joshi
[unused185]
##id
anywhere
civilization
shrines
paris
email
arithmetic
zoological
bukit
##zation
n
1847
owe
through
##yr
caressed
borough
##藤
##lton
encryption
##minate
taught
c2
男
rope
monmouth
roommate
mounts
investigating
collaboration
bastion
southland
##fb
regaining
aired
paralysis
##б
lisa
insist
##pack
reggae
##ith
##ifolia
mildly
charts
sao
soluble
controversy
quo
356
##metric
liberia
##urbed
##ck
philadelphia
##ᄐ
randy
riaa
conservatives
base
##氏
case
##mate
julia
##sw
aloud
whatever
##nies
mitch
##jured
arte
approached
step
chuckles
sudan
##eous
rate
[unused751]
reddish
santiago
brunswick
nonetheless
[unused267]
recruitment
vacuum
syndrome
##へ
grow
brilliant
monitor
qualities
libertarian
##chan
eyelids
relations
315
bharatiya
untitled
scratches
##riders
344
[unused718]
mild
nano
mouths
##oid
flicking
detained
##見
hawk
alonso
noticeable
##uled
43rd
homework
##ieg
##版
tuna
funky
builder
holstein
apples
愛
sabah
revolutions
whorls
auditory
417
1940
iain
solicitor
wit
counsel
swords
##koto
##書
##忠
distraught
intel
brigadier
fulton
stadion
asian
cello
traversed
##planes
##oop
stir
partially
revenge
store
##·
feeder
revelation
ache
timeline
breathed
sided
alternatively
reunion
converted
1663
reconstruction
##aid
madhya
##ined
minions
1820s
hyde
ᵏ
spaniards
religious
departments
quaker
terra
blushed
irrelevant
##ק
engineering
[unused216]
##fp
activity
##rza
susanna
##nem
woodland
##chester
nineteen
scalp
philippines
cher
columbus
ashes
fries
##tro
marlon
canterbury
anxious
showers
returned
emmanuel
instrumentation
##cum
outdated
medicines
##weig
4
##typical
clemens
陳
##9
log
1600
chuckled
sandals
camilla
21
christy
radioactive
grants
malaysia
crouch
79
##ually
3000
disrupted
##lves
##zine
angular
trough
##duk
##oto
huang
represented
troubled
##yler
原
hazards
crashes
dies
semitic
1755
murray
moving
philanthropy
behaviour
servicing
伊
tasked
anyone
##lk
##cts
programmed
southwestern
##eto
editing
##shire
convection
products
fantasies
fiancee
wanda
novelist
location
ceramics
joined
italian
cruise
1642
skeletons
##đ
jeff
stranded
wc
parkinson
exeter
siegel
##tern
recommend
tong
wanting
abdul
##ieri
fresno
[unused3]
hardcore
guarding
generated
chan
22
¿
catholics
neighbourhood
knowing
faulkner
49th
airship
##ɣ
##nta
redding
independent
##tate
##oga
litres
##phate
##ɕ
billed
rubbing
ghz
armand
today
arranging
##lous
ticked
glory
liz
1716
##dya
flaps
loretta
declare
##logue
boo
irrational
streams
lucia
##ward
oversee
hint
statewide
ocean
##notes
##石
dates
constituents
transitional
[unused659]
下
backing
crimes
##burgh
[unused663]
investments
[unused820]
##hopper
passive
malaga
nitrogen
##off
playstation
tae
sloop
##vin
sleeve
axe
##aint
lawful
##rrard
ो
agree
##scope
##ان
鈴
##istic
pba
1909
##一
leaping
achievements
ali
##90
##ils
symbol
amos
mustafa
beaux
cheers
occasions
tells
que
[unused118]
uttar
pioneering
suv
bathed
outburst
glowed
##mian
angelica
guaranteed
matters
battles
recognizes
##erate
arenas
monitoring
[unused601]
##wing
dub
þ
##rgo
vaudeville
subgroup
behalf
dietrich
airfield
##chai
answers
##鈴
tongues
fearing
chalmers
199
##dda
margin
1911
investigators
jeans
dartmouth
[unused204]
sara
##?
stony
##mit
asean
##ization
##↦
bethel
[unused877]
measured
graveyard
abortion
whirled
##amo
goodwill
prized
alerted
spectral
bey
1978
[unused586]
cheese
growl
blunt
sporting
##gating
cade
overheard
originating
eagerly
legislators
pairs
areas
jai
##itt
postgraduate
##tze
261
met
priest
ensembles
edge
lucien
rv
malacca
wishing
stephane
curate
sampson
g
frazier
##ized
jupiter
scared
sea
eva
rewarded
drivers
##थ
##ographic
maris
reserve
sneaking
denounced
##hn
concern
echo
chatter
##mium
saxons
guy
telling
frederick
drafts
##£
paddy
##ensis
##iche
##crat
lucas
entrepreneur
remnant
broker
brasil
β
welded
inception
hints
##ennial
preserving
##lers
##bic
##ausen
560
##hit
personal
enrollment
##ка
airports
##avian
endurance
attack
slowing
tx
900
加
ranch
conquest
rent
amusing
crafted
creations
erosion
tied
converse
idiot
blending
ideological
aerodrome
bribe
lest
##sden
dummy
astronaut
ignores
[unused532]
##rio
##hale
wrexham
pleasantly
explore
humidity
collected
wreck
lick
refusing
##gur
##ı
##eem
enhancement
##iring
voltage
yesterday
wizard
exceptions
ek
studied
gaelic
##lter
##lding
##yx
ब
[unused651]
attended
learn
morale
2008
##anne
urgently
refrain
hangul
ة
pere
nunez
[unused341]
##rga
tai
friedman
111
##acker
choral
centenary
ritual
plate
whisky
pokemon
weaknesses
satisfying
elijah
merritt
pastor
follows
##lip
arises
##llar
mausoleum
##ppe
pt
flux
##ery
oklahoma
sutton
##para
visitor
utc
hatch
marquis
marquez
mortimer
guerrilla
reynolds
##wg
[unused389]
##ﬂ
##esa
command
##rac
章
tested
frontier
cyclist
brad
scouts
disclosure
##cycle
##κ
word
drawn
[unused553]
##itung
inference
exemption
argue
##fine
johannes
##stered
5000
##oun
##yte
1959
bogota
gomez
monk
vancouver
##venting
wexford
transient
gasp
boundaries
compassion
annals
bergman
among
wwii
appropriated
crowley
き
monument
pole
mein
stepped
[unused226]
six
grateful
##zan
catches
##¦
metric
gears
##ད
pupils
warfare
percent
treating
##dale
##bre
chloe
127
##ayton
winter
jr
yoko
demon
munchen
ひ
dunedin
##igen
rivers
newmarket
dispute
gates
heating
assurance
decidedly
valley
relatives
vine
shaping
guzman
figure
shape
alicia
clinics
numbers
dissolve
版
inputs
booths
##inatory
electromagnetic
reconnaissance
rees
##dek
##nell
##ᆼ
##uil
gough
challenge
##ᶜ
acknowledge
dawned
##zzy
versailles
tbilisi
promising
wagons
henri
##dis
##gami
performances
unclear
beautiful
walker
rushing
##rde
mimic
exchange
##ら
##vir
##tlan
##ि
yoga
noisy
##lena
thugs
slap
sensitivity
##wk
##guard
associate
[unused691]
saber
lyon
quota
ा
interlude
##one
antarctic
1912
jakarta
foundry
links
darts
spicy
vincenzo
cockpit
shrubs
slides
reform
humiliating
turkmenistan
##dington
inter
liberalism
doctorate
enormous
disagreement
yeast
##kh
yourself
##co
courthouse
wired
dish
placed
morse
gregorian
##瀬
reese
billionaire
latch
consulate
coordinator
illustrator
escaping
anterior
[unused252]
1999
melancholy
nietzsche
##gl
pleasant
measuring
caucus
adultery
cocoa
filly
instant
dodd
##ded
##广
character
##gaard
##dio
creditors
##باد
welcoming
screen
applications
##tones
糹
baxter
##pts
stan
interfaces
potatoes
##kota
cooper
gut
virtue
deteriorated
gonzalez
coughed
##weiler
drowned
chesapeake
gerhard
fluffy
jc
management
macedonia
falcons
maximus
vote
02
seniors
vastly
##ʂ
##bron
linen
ironic
##ο
cliffs
electrical
##low
fullback
burr
capable
##powering
surfaces
;
2001
##cturing
courage
##torm
duchess
nonlinear
##gun
slave
larsen
beach
chinese
##aj
africans
recounted
galician
west
ave
lowry
glacial
matthias
introductory
[unused14]
willem
##anu
cbs
maintains
marxist
##iy
konrad
dry
courageous
##mmy
digits
[unused968]
lump
##ivo
ought
rd
##ա
[unused237]
ɯ
opus
sox
ی
civil
##っ
shapes
pinyin
##¹
boulder
theresa
alpine
vibe
quietly
lori
basic
##mori
339
zones
forefront
ono
##ppel
rhymes
1620
amazingly
[unused591]
mavericks
sisters
swaying
turks
curled
sang
smelled
real
maneuver
contender
bradshaw
prospective
##⅓
reaction
putting
lava
constituency
1960s
swiftly
engineer
initiated
conor
##ear
ק
nuns
##witz
shades
radio
sampling
##hot
digital
depictions
##olved
##ན
##aka
##band
orthodox
sumatra
##ˣ
##hrer
harlem
correlation
stacked
overthrow
hamid
stresses
en
##de
aggregator
1739
caroline
request
lauren
urdu
hilary
carriages
##ples
imaging
insane
regions
tesla
interned
bundle
unitary
melted
gag
##9th
[unused885]
equity
item
vane
ur
remade
##ː
technologies
dictionary
bean
coke
##nator
conceal
originals
taylor
axes
dysfunction
wince
##rling
subdivisions
station
華
singles
impulse
[unused491]
medial
##wee
requests
partition
fe
##ration
##rred
wood
[unused947]
[unused401]
flute
##wise
clasped
##kumar
nah
charms
##oses
##houses
1953
celebrations
##xi
accommodation
retirement
start
habitats
##quette
##werk
hat
charm
clary
道
rapids
edison
coloured
##uming
arrange
quick
##gf
stair
322
nobility
firearms
alteration
safety
##mis
##ibar
scroll
works
##tor
travis
challenges
artist
advocating
##gus
226
##point
debt
experience
installation
quantity
christie
culturally
fined
##gong
ingredients
gravely
roasted
normally
nair
basha
junta
appropriate
commonplace
park
##af
cyclone
married
wage
isa
1895
medicine
honey
mind
jesus
dominate
towers
fitting
jokes
[unused939]
寺
广
tips
averaged
logs
niall
presbyterian
music
improved
centre
stuck
monetary
runners
closest
koch
abused
sampled
orton
1899
##opa
##imov
##同
reductions
##eux
generosity
huts
cleanup
admit
jerry
goblin
wielding
require
sun
bluff
blackmail
##hos
essays
##the
committee
##志
files
nazi
scarlet
sabine
downloads
##und
xvi
##sque
landowners
##sius
ripe
package
##tre
1870
desired
branch
##rae
bouts
must
milwaukee
honesty
contest
enhance
masonry
ponce
##ose
marianne
recording
struggling
millions
leone
objects
jerking
##ivism
[unused657]
yankee
yells
handkerchief
##hun
##nivorous
glove
##ying
trick
since
shock
π
colleagues
intercourse
##mora
preached
間
ᴬ
stadiums
##rona
olympia
podium
habit
##xing
cpi
programme
islander
says
ipad
promise
yearning
bombings
shirt
wolfe
650
impose
⇌
##mail
##izing
emails
##eller
##健
transylvania
squealed
printed
treatise
panties
garfield
1859
##iction
playful
distraction
ie
subconscious
[unused64]
gold
cole
factories
perry
commended
##llary
odin
gal
xp
skirmish
##চ
chopra
ready
[unused332]
州
ツ
similarities
edition
nikita
[unused120]
misery
developer
rider
andrew
代
hannover
distribute
paranormal
incomplete
[unused29]
simple
railway
meal
[unused351]
ᶜ
insider
##harat
##bain
financially
zeke
##″
gradient
bernstein
shocked
breakthrough
bitten
##ove
bathurst
banner
famine
tax
bangor
defence
noir
hall
duc
joint
monster
plant
nucleus
##rial
aircraft
1812
##kit
##oons
beaming
48
suffolk
garage
wiener
impacted
##yce
peers
glanced
effect
kisses
greenville
anastasia
beige
antrim
developmental
tome
schwarz
##tf
dong
petra
led
##47
sickness
sister
innings
mohammed
slice
[unused444]
tapping
##tment
say
##44
##yev
च
achilles
##bin
lying
macbeth
sincere
##35
ap
marquette
nectar
flanking
[unused310]
##rov
truck
throne
arnold
##straße
psalm
network
bites
italics
##waite
hero
hornets
軍
counterparts
fairchild
allied
amulet
living
##tyle
fitzgerald
##ays
44th
disappointment
definitive
ᴰ
gunner
##ɴ
richmond
superb
highway
95
altering
funding
circa
す
van
cherokee
yunnan
missionaries
underwater
outline
hardness
polynomials
dog
lads
depression
ju
##uttered
malicious
zone
autumn
ィ
trek
usual
attractions
##clops
devised
europeans
unstable
##orous
obsessed
sustained
detected
fen
##iser
sole
thoughtful
hunan
starting
soviets
kyoto
##case
archipelago
crusader
fantasia
outer
allegheny
founders
stake
roe
##hh
extensions
##tadt
##kala
ala
nodding
##rti
bits
flyer
8
##四
##uing
ass
thrash
apparent
locating
##hes
##ilia
##bius
dreamer
faced
##rer
folks
exhibit
literature
sustain
##ok
draws
thunder
1625
ardent
greens
armed
taxes
nevada
##kos
312
you
invasion
exception
khmer
glass
horne
he
admiralty
flipped
ह
workshops
timer
##5
efficacy
[unused576]
hilt
porte
eighty
##imeter
country
messengers
fremantle
harlan
semi
ev
վ
[unused538]
##tique
##zu
dances
orange
metro
hyundai
b
replay
cancelled
##rmin
keystone
vis
##kra
snakes
leisure
[unused111]
constituted
##χ
canon
styx
aston
##[
assigned
slovakia
rosario
1964
##ral
archer
08
patrons
##yat
flying
heck
accountant
realms
##enter
cops
insult
portal
pierre
245
##bers
scent
compatible
##ogenic
curling
sucker
pirates
digit
significance
tentacles
##rito
luigi
フ
gardner
documentation
dom
##np
granted
grange
hazardous
##ncia
johann
ph
700
ο
tragedy
brass
topography
80
##ken
seminars
##五
cannon
laurie
##mbe
aleppo
text
sub
##zed
##─
mac
td
colombo
ion
##proof
cold
bands
##ski
purcell
rotterdam
##ity
patiently
riley
dolly
##ark
gunfire
clenched
playhouse
[unused963]
christianity
zack
##von
proceedings
##gio
##ong
##ahl
instructional
dupont
##drich
tubes
2006
crow
[unused402]
jillian
kara
sink
bullying
##ctors
##hall
logos
robinson
##श
roy
chose
timmy
lining
##ris
sunday
whipping
engraver
chicken
##personal
support
neil
integral
felicity
although
[unused170]
macy
##urian
271
healer
217
towels
reasons
dun
japan
glasgow
##rey
sk
protector
speaks
mclean
thrive
competing
concerns
expecting
183
lego
##growth
employers
[unused606]
showed
proxy
[unused257]
heath
colombia
injuries
bride
##old
vanguard
verity
1865
model
drawer
##आ
greene
frown
[unused480]
##ologists
instituto
steamed
quarter
populace
steel
zip
barney
attache
##ffey
shu
nickelodeon
##oir
gr
##rita
##lining
regretted
mayoral
sanitary
czech
action
stafford
cookie
nielsen
semiconductor
applicable
uruguay
fours
国
smells
cappella
computational
canberra
1779
lincoln
##more
judgment
exterior
tone
disgust
##øy
number
.
##put
##uch
emperor
shovel
archers
##樹
caves
pinto
lancaster
vhf
ф
keep
##ibly
wire
leach
会
currents
gage
立
##pala
##eli
miraculous
##巿
1763
##acion
bartholomew
temporal
##hog
gear
tko
chickens
[unused741]
endowment
ecumenical
3a
ⱼ
lublin
intra
compton
##ide
mckay
professors
reef
launcher
speeds
georg
airlines
charlton
douglass
colonial
##）
ohio
dutch
yelled
portable
coating
tao
ট
978
rick
instrument
conquered
resultant
##ย
##ष
technical
buren
topological
concord
森
prescribed
castillo
specialists
ย
##ulio
arrows
subdued
shankar
donnie
regard
##hill
##uze
hilbert
ゆ
menu
previous
tape
ladder
bone
##²
cafe
alderman
ballads
##fers
administering
lounge
francoise
##athan
laden
procedure
##bbly
vicious
武
tbs
stipulated
##oni
elephant
influence
[unused707]
abundance
jaw
191
pending
fluttering
better
headwaters
nominally
educator
##lian
trinidad
moravian
bowed
hills
bancroft
interruption
threads
belts
hazard
##cko
carrot
warsaw
algerian
truths
##nified
pops
cedar
banging
secular
1963
bathroom
laguna
##rda
criminal
scottish
surgery
dim
aus
##zzling
theodore
##emann
fargo
##tori
##tani
##piece
[unused439]
nails
[unused762]
decisions
matched
mid
apron
boilers
°c
attitudes
chimed
scarlett
advocacy
[unused828]
certificate
##₈
##ary
five
dared
consecration
authenticity
teeth
##tai
costly
verbs
wonders
storage
##ado
rebranded
barrier
##kawa
hd
##nine
narrative
⁸
aiming
eggs
##ach
##nae
bankrupt
事
hr
fishes
killer
##thed
clair
る
子
active
stocks
wimbledon
fast
[unused234]
##ᵉ
pattern
₄
stating
1937
routines
kickoff
apt
rc
[unused624]
vanished
wat
sec
aviator
harden
influencing
！
colours
breaths
rewards
archangel
visitors
sentiments
emperors
mccall
unicode
considering
acquisition
2011
##phonic
swing
copyright
barron
1954
1540
sanctioned
##bs
colliery
298
##lessness
lineup
pyrenees
##ku
##ol
》
##sz
suppose
colourful
##urt
hari
tear
newscasts
appreciate
gloucester
relaxed
blacks
glacier
confusion
ச
disturbed
encompasses
1878
##bria
sizable
##tarian
##扌
wealthy
fragments
females
志
anzac
##kill
waivers
majority
##ference
hungary
rice
strikers
win
listener
anton
course
[unused940]
##inian
emigrated
dahl
employee
understood
##غ
##duction
salty
彳
reactors
##dent
southward
##hui
bank
harlow
barrington
##■
##lkirk
routing
qatar
mons
entries
##iation
reared
kassel
##ذ
pays
daughters
mca
##zon
brewer
##naud
sewer
precautions
friars
cared
##farlane
##rbin
maui
herbal
dreaming
##folding
guest
portion
760
caledonian
retired
traveler
##nche
mattress
holloway
acres
guests
[unused942]
seas
sponsorship
[unused199]
1867
inquisition
juris
shorts
wings
mod
studies
minus
casualty
underwent
gallery
cultural
valleys
giggling
##ович
ambassadors
discreet
ர
oriented
grady
mosque
kuwait
ol
[unused301]
communities
chilled
##oned
degraded
##oys
##gned
bachelor
brands
mourning
winning
chains
##cast
##ni
vc
sanitation
layout
competitors
wah
djs
afi
nat
parliamentary
beamed
unwilling
reliance
barred
goalscorer
conway
chong
inexperienced
julio
adviser
adolescent
generate
##fall
##zuki
endorsement
livingstone
terminating
[unused66]
##sby
##be
##pol
vidhan
gall
##ik
1675
medallion
##lal
armagh
##bn
##ぬ
880
categories
catalan
2005
standards
karin
loading
gillian
camping
immunity
commune
gene
##pd
congregational
telugu
bahrain
cuban
indictment
marking
capcom
cw
1719
failing
antioch
chief
tar
settled
pedal
1850
rs
ე
♯
⁻
rigorous
##rber
scenes
quartet
kathleen
##eld
giggled
shards
continued
4th
entrepreneurship
delegate
understands
chichester
zaragoza
push
exposing
kun
rocker
minors
stunning
vol
flawed
alma
##word
erupted
##lp
meg
moths
##ype
bel
nik
##powered
use
systematic
canopy
nadia
poked
##mmel
giovanni
improves
groaning
河
spire
1921
kiss
happily
nightclub
aaa
contradiction
skin
##bedo
##ˤ
##香
##cas
adults
##ivate
furious
attracts
##wark
advent
##fort
surgical
31st
fluid
parks
##moor
##仁
dogg
close
relocation
daylight
miss
[unused318]
##ricting
loneliness
burials
cesar
canoe
##arat
popular
surrey
peoples
specially
steep
joe
##onus
##iri
visibly
perfectly
##worthy
##cut
crested
cnn
vox
germanic
caress
[unused99]
touchdown
midst
##hip
غ
examining
##tra
paolo
1813
limousine
apprehension
ᅦ
elvis
cary
eine
fearful
backup
arresting
##inated
appropriately
barcelona
surpassing
flanders
coincide
alto
careful
pleas
##urn
taiwanese
amenities
911
magnesium
kant
##ʿ
sponsors
##ically
##wall
ports
501
faithful
##rug
ankle
danger
mechanized
reilly
des
domains
rearview
op
cassie
guggenheim
##ナ
casablanca
[unused468]
telangana
ি
##ening
someplace
revoked
melinda
turnover
sovereignty
1984
capability
##ron
phoenix
stem
##あ
helps
everybody
dominating
stefano
gazing
majesty
deny
iceland
raises
aesthetics
tricked
##rry
responsibility
concerto
⟨
##lle
meritorious
φ
victory
29th
274
halted
##ₚ
judgement
template
tian
blonde
opposing
[unused780]
##eptive
た
variant
##¶
california
locally
mont
devastation
##mur
source
##khar
og
albert
excellence
torre
algiers
bosses
→
multiplied
春
perfection
constance
utilities
earnest
##cy
sierra
verified
laboratories
##uising
cellar
submit
##ari
lifting
irony
empirical
rooftop
molly
planck
copeland
ale
bethany
dutton
rebellion
##ryn
tatar
presses
john
accounting
calais
##“
occupations
##gling
rocco
1940s
arabs
##pl
browser
arguing
rendition
smuggling
jose
weak
hank
broadcasters
##osphere
maps
tracey
torture
wight
tara
##ision
elliptic
needing
lifestyle
beverage
stared
nominations
cavalry
crawford
western
busy
receiver
##yla
colbert
mx
climates
1944
##ving
[unused334]
apostles
expansion
neville
rayon
140
cab
460
jumping
[unused542]
[unused812]
sultanate
leap
partnerships
spelled
pseudonym
upstairs
rows
kidding
messiah
cleaned
ng
kills
footprints
vedic
kate
yarn
leaps
秋
breeze
##dus
werewolf
##ض
##ェ
boyle
ideas
conserved
wicket
detroit
struggle
[unused729]
##vet
mauritius
⺼
##gny
peering
echoing
##eland
thru
affiliation
devout
townsend
##sei
##fight
##ו
peel
breaking
curiously
honour
##izes
suspiciously
pulsing
plastic
sack
ud
##伊
sept
##version
54
wheat
joanna
believe
kick
##≥
bedside
ி
birthplace
##ɨ
reins
slowly
socks
profiles
surf
reason
##hari
liang
−
emergency
sts
[unused746]
certification
##hardt
##gat
##sam
momentum
drugged
uno
##-
thornton
bass
##rata
galley
liv
##®
##oke
unharmed
margaret
117
punching
mergers
baldwin
##jah
vigorous
dortmund
guarded
patriots
slow
drives
##pac
wavelengths
factions
round
equivalent
parody
traffic
emotions
praising
bunny
catalonia
centered
what
##udged
kicking
actresses
##zo
magazines
referendum
promises
susquehanna
injection
##ailing
[unused839]
klein
seamus
##ist
jian
liked
##raph
residency
anniversary
##mity
val
rigged
gabriel
kazan
##ree
boil
selector
renovation
##nail
nakamura
dresses
##⁷
##lving
[unused100]
tailored
montana
massachusetts
##uman
198
dorchester
[unused330]
[unused887]
medical
class
flipping
atmosphere
##uro
roots
questioned
keane
hip
mans
exhibiting
bound
gavin
internationale
gaulle
assertion
##taken
##د
faso
system
##よ
arrondissement
carleton
430
july
drip
prohibiting
corresponds
##unced
songwriting
campbell
initiation
##馬
concept
218
cylinders
1884
conductors
already
##gnant
slumped
[unused918]
song
votes
tt
rectory
耳
woodstock
barley
##lley
cao
rainfall
proficiency
illusion
admits
##ngen
windmill
14th
harmonies
respecting
poisoned
tires
##nius
##‑
rug
levy
##vere
intimacy
thankful
python
999
ole
jesse
hire
storylines
relaxation
womb
barre
champions
##ass
##acing
subtly
##phine
[unused110]
geschichte
cleric
eased
brandt
skopje
citizenship
moffat
19
standard
yvonne
wits
[unused984]
清
##ate
bloody
edged
answering
festivities
fungus
arrives
[unused752]
##je
[unused731]
mistakenly
arena
1887
stryker
wr
holes
congress
slope
gonzaga
leland
shattered
choke
stuffing
checking
sticks
symptoms
ramon
hs
erect
##oe
apocalypse
rage
tickets
rosen
parapet
1910s
prompted
unto
operational
limits
holding
blackness
mohawk
י
##モ
ymca
wolverhampton
[unused238]
peace
entry
shepherd
pop
impatiently
sandwiches
linking
sha
bikini
titled
く
sniffed
##₤
continually
[unused734]
aurora
##boat
austin
167
capacities
delayed
deciduous
forearms
ᅧ
##kian
##門
##₁
##mans
mckenzie
mike
331
##ч
protestants
attendance
hospitality
bulging
us
elf
##bie
ranked
worldwide
##itate
##lls
heartbeat
residing
街
tent
mira
dare
mobility
waste
jerked
embodied
acquaintances
##fur
emi
recess
81
##ハ
##screen
hypothesis
deposed
flames
climbs
statehood
reckon
antwerp
[unused297]
##×
males
deutsche
##ᅩ
dragged
spell
##lina
osman
boys
pow
shaking
##rence
##<
turk
frankish
##stown
impress
pronounced
2010
gigantic
dockyard
##ango
guarantee
##unk
liturgical
##ocks
brood
coupe
##kal
1699
kathmandu
gujarat
shriek
steam
##bury
calendar
picnic
amid
titanium
originates
negotiated
quieter
dunne
modern
mustard
##ia
[unused823]
specifications
[unused426]
illness
participating
也
syrup
buccaneers
carpets
organist
electric
completing
legitimate
##bit
akin
goodman
managed
generators
##ople
matt
ascended
1879
matching
parting
mansion
##avio
distant
hydra
1667
substances
gulped
contend
##ո
audition
ethics
loyola
[unused292]
wilbur
ascension
spoil
##ے
mentoring
learners
##河
##dating
busted
enduring
adventurous
oct
completed
ideals
hedges
astonishment
procurement
teasing
##rai
hemisphere
loop
元
balloons
assets
##xide
pulses
baths
caden
chunks
academia
herbert
cue
temperament
profile
retail
labourers
unsuccessful
intuition
50th
[unused642]
invitational
beard
significantly
pe
trials
giggles
batteries
##⊆
##》
##こ
radial
emissions
beck
[unused461]
containing
##kling
##ʀ
anthropology
rotated
[unused500]
greenwood
carousel
##hiko
spotting
ringing
surpassed
coordinating
ಾ
villagers
chanting
##ious
reports
chest
look
meyer
“
nintendo
##offs
suffer
##iary
mr
robots
cassandra
##dling
bolivar
proven
brat
##pes
constitution
terrifying
demeanor
mcdowell
##gent
fielding
11th
##codes
##lash
avenge
##cino
neutrality
rank
．
fetal
renault
区
henry
rhea
circulation
enlist
brand
neoclassical
swat
##hian
baseline
immortality
##bola
amazement
##eus
barbarians
draining
midsummer
causes
chair
bubba
с
daisy
audio
ක
refrigerator
disciplined
oils
distributions
settlement
maximilian
latitude
unsigned
friedrich
mouthful
sloane
wondering
barclay
shipyard
awhile
visuals
moody
##bib
poised
relatively
##tral
ワ
[unused313]
##essed
yellowish
digging
anthropological
handled
hiss
wikipedia
##lion
sega
目
##lib
woolf
fabrication
##rys
trombone
higher
utopia
risked
fairs
slight
calgary
brant
charting
##hering
heaviest
motive
daly
##uss
monumental
##ifier
mayo
attested
youths
bas
horizontally
##wani
andrei
161
disguised
siding
bouquet
search
entertainment
##bar
armored
flopped
labour
1939
##uls
lifetime
warrior
garden
1971
application
##mg
##ears
pri
classroom
##ola
biological
##bee
nets
[unused555]
nemesis
protocol
##n
becky
suppression
unbearable
regan
flicker
sincerely
[unused72]
catch
##ides
amplifier
cost
[unused432]
leaked
##ibility
prisons
syntax
sculptures
##₹
remind
lashes
animation
proprietor
blindness
nee
##joy
accreditation
peach
>
##iom
[unused304]
lodged
acton
slim
promotes
aroused
preparatory
##linson
murphy
venerable
identifies
restrict
bid
murdered
gross
##zhi
##kind
smallpox
formulas
[unused174]
kids
dismantled
##listic
##mble
»
johnny
arctic
##phus
utter
picket
[unused431]
drop
mock
slogan
darkly
twitched
opponents
disagreed
##մ
janeiro
[unused875]
nfl
championships
iron
hate
flashback
forgotten
##inating
mound
##ق
entirely
283
hellenistic
streaks
scales
eduard
authorization
lena
tuition
milestone
affluent
crystalline
comune
##tres
275
ft
denny
rivals
completes
57th
wednesday
lex
bahadur
iraq
headlining
irwin
##ook
buzz
adolf
##ᵏ
stark
nosed
caliber
##ldon
texted
casinos
conflicts
calm
shouting
##↔
##ου
##示
hinted
strand
##kia
cynical
rep
facades
configured
eleven
ব
##hood
²
##ball
田
zero
fourth
benign
##ow
173
##lux
poly
☉
epic
ր
padded
kyiv
liver
trois
dorm
global
ipswich
##wa
##lma
##osed
##uda
ང
fine
deserts
tours
dion
##yard
vascular
restaurant
pixels
lyndon
atop
skye
ව
notification
eliminating
alfredo
##stor
[unused382]
audi
##tten
twigs
complimented
collaborating
corpus
##55
##tops
literally
##cute
1754
predominantly
liquidation
##ui
##oor
##cured
creeping
bournemouth
rousseau
1016
spa
insulting
buddies
ar
fairbanks
##shaw
constellation
sherwood
vineyards
succeeds
276
categorized
contamination
1701
northbound
##ogo
##obe
upgraded
palais
sugar
ira
##dern
trust
hybrid
twelve
wasp
prince
##adi
reproduced
rippled
civilized
hayden
pitching
hairy
czechoslovak
peg
nico
1560
relies
##scribe
pencil
gorgeous
fuzzy
##etz
complete
screens
##བ
farmers
winchester
##truct
exempt
##kaya
taped
spielberg
##elli
edible
week
uphold
corrected
columns
intimate
fails
underworld
avant
255
alternate
helsinki
passions
shielding
##itha
##lston
irritating
##♦
suffix
karate
##ר
archery
salaries
hooper
passages
thanks
etc
viva
server
elm
mission
##ida
midday
1836
coma
savings
upton
##¤
strictly
inexpensive
##moral
booked
pilgrims
commissioner
eating
medals
publisher
moans
exiting
##ucible
stained
stumbling
[unused114]
easier
spokane
caucasus
yawned
impatience
##イ
royale
moved
タ
caps
sicilian
pigment
risen
custody
closet
d
alexandra
kris
anticipating
teacher
[unused805]
bacterium
##cc
amplifiers
lifelong
exploit
whitaker
shocks
##ტ
orchard
い
##ns
260
206
lyric
irrigation
hector
##app
suffered
##uring
redevelopment
##hg
314
reverend
slammed
chevy
analogy
otter
hilly
##ming
##grave
pistons
mexican
adherents
##sg
traction
neighbour
manufacturing
south
fjord
##ern
operators
volvo
ape
challenger
time
fruit
admiration
ם
patsy
osborn
dawn
drag
##athing
fable
paranoid
assassinate
items
char
prophets
##mable
⊂
internment
melvin
twenty
conditioning
afforded
astronomers
neglected
eugen
##uel
ling
constitutional
##mpton
##ा
pharmaceuticals
earth
administrator
humanoid
რ
##ump
cartridge
dropped
somethin
##る
mcguire
petroleum
invariably
hospitals
knicks
key
[unused176]
perennial
mapping
س
rotting
porcelain
dale
confirmation
≥
disqualified
roland
clap
amazon
宇
gardener
##ryl
hits
[unused175]
##ede
feminist
plotting
€
belief
huff
urgent
length
295
##生
perez
poole
tyre
chairman
troupe
sweden
uppsala
initially
settles
exploration
##kai
normandy
proposals
enemies
##治
##holz
trolley
longed
ceasefire
mandela
∗
holland
toilet
regal
cowan
[
##ulsion
##白
facebook
cordoba
scholastic
bryson
bertie
numerous
##zko
wonderful
delta
defective
ordinance
##bino
##h
187
layers
grace
##una
fields
jury
32
finalized
##elial
smartphone
[unused443]
diet
decrease
##bahn
commemorated
grit
those
corp
tails
education
passport
outlying
comprehension
##chison
sv
##rites
[unused868]
##lation
##erative
##ッ
##ν
johanna
paralympic
invitation
fresco
[unused873]
kindergarten
fatally
#
##henko
##aro
fukuoka
337
1819
anand
##ran
augustine
suggesting
issues
norm
spiders
composing
##lization
resigned
precedent
pearson
windshield
novella
##ins
likelihood
timed
hungarians
impending
championed
interfered
needed
casualties
##ault
##station
##liest
pascal
iranian
noctuidae
[unused231]
248
##play
##rock
##tet
reyes
incidence
promoter
##lub
##mour
fulfill
jaime
equilibrium
crawling
implying
##lium
vivid
camps
emigration
resolutions
maltese
implications
ს
gunshot
な
[unused205]
jody
xinjiang
fraud
believes
brooks
##bbling
saints
cu
meant
sewage
bolsheviks
1817
##bate
eastward
##tland
speaker
anglia
vegetable
maitland
alloys
wed
fellowships
ས
mutter
##suit
swimmer
portrays
pastures
intercity
translucent
##qi
successfully
ritchie
bulbs
barrett
fitch
causeway
##lice
[unused6]
elevated
powerless
friction
playoffs
gas
frequencies
halls
weighs
yucatan
pictorial
currency
favorite
translates
harassed
download
##ura
##भ
abstract
lotus
visibility
1880s
mole
21st
started
ক
dyed
000
buddy
southeastern
ks
ghanaian
valet
##tics
marks
his
shooting
neill
glimpse
rourke
hilltop
mach
[unused974]
##rith
flowering
intercontinental
receptionist
weeks
zionist
danish
organising
##ll
baton
##izations
justin
tribal
##las
##ania
[unused413]
dynamo
parties
##gos
inclination
##mart
##ₐ
##smo
##85
cosmic
gallon
franklin
assists
id
##lifting
presence
discharged
jordan
1934
kicker
inflated
##istles
samples
´
brennan
cameron
弘
baltimore
starring
##sal
prior
eel
institutional
retailer
erasmus
plumbing
puzzle
quivering
jimmy
##rington
labeling
trades
##چ
sacrifice
coefficients
noises
attractive
hesitantly
##nese
conscious
petit
##all
720
evangelist
lok
prohibits
smiling
tightening
clever
flinders
lynx
lieu
moors
critically
received
elevator
##erina
appreciation
line
lighter
pts
##lab
playing
closely
##or
lionel
turret
supervision
##gs
structurally
178
excel
有
drummer
martyrs
immature
releases
##bat
[unused632]
421
##cite
##：
##ecure
fitzpatrick
operating
cinematography
radha
campaign
husbands
[unused948]
mule
43
articles
terrorism
dawson
georgetown
stew
consoles
##nch
[unused459]
preacher
optics
interpreting
nur
whiskey
##awa
kappa
topped
inline
[unused214]
cheerleading
haynes
nan
matteo
##8
submarines
nicolas
patna
coroner
##fin
##lein
strait
##松
##foot
##cles
finalist
startup
dipping
leonardo
##owed
士
##d
rational
battalions
mantle
##dron
##brates
silicon
papacy
##ilde
et
descend
resolving
clone
dishes
economists
[unused107]
া
##fully
##izer
swamps
uncle
sale
refurbished
##dan
steadily
stand
lid
##long
indeed
outlaw
gt
##ve
ᅲ
penitentiary
##deck
notable
ᵇ
tilted
kilometres
##face
templar
liar
##我
writhing
tn
yell
ashton
lastly
simi
its
umbrella
narrowing
falcon
break
earrings
cologne
adequate
male
physical
os
nominated
tribune
##پ
nearby
supplemented
kali
bundled
monkey
florida
augmented
durham
rashid
outrage
##fest
ares
condor
村
joyah
theory
[unused192]
gina
breeders
bullshit
packet
madison
complaining
giro
marina
poster
segunda
bubble
[unused837]
bucket
##inia
##standing
jarrett
convenient
american
400
width
##win
violent
contractor
donnell
##iba
vanuatu
##ij
imaginative
##vary
dwarves
benevolent
widening
wholly
ц
zoe
tommy
brodie
challenging
ottoman
rapid
[unused2]
logan
harbour
bay
marino
stemming
##har
##port
straight
##oris
##hma
irregular
ingram
examines
##atal
finch
restraint
furry
495
cadence
nightingale
##和
##า
dan
wake
casper
##chia
clinch
gift
##like
พ
calf
##rup
justify
stage
foot
programmer
##al
genetic
##nge
blessing
contributes
tolerated
flirting
fundamentally
aquitaine
ts
1990
wilderness
neighbors
nascar
##vr
ben
volcanic
bays
##hic
criticisms
resorts
jewelry
1st
radius
charlemagne
astonishing
alive
hop
solve
coconut
estimated
neon
onion
##lie
##tile
iona
responding
propellers
modelling
##ar
shivers
gore
moshe
##ani
delaware
jessie
[unused709]
ezra
scriptures
probably
guild
asiatic
19th
##cca
##uria
jonathan
receipts
cote
##omy
lame
variance
condoms
rodney
##þ
治
confuse
##ak
scranton
towel
nikolai
standing
boroughs
flex
montenegrin
26th
##ance
parc
deter
##omba
malls
societal
expeditions
footing
asthma
tell
thierry
squares
centres
certificates
citrus
bluegrass
napkin
pepsi
battling
defect
##drop
1741
ɑ
investigations
flynn
bart
successively
straightening
steady
denoted
further
##arion
taekwondo
zu
phased
interceptions
250
₂
bitterness
sgt
interrupted
tirana
instead
བ
detached
matthews
##sions
fibers
kam
inched
[unused452]
##aldi
yellowstone
##yal
coastal
indonesia
1860s
54th
[unused269]
balloon
homo
manitoba
##biotic
integrate
siberian
44
lombardy
[unused160]
winston
##ifice
individuals
##zen
pia
boots
abs
scheduling
student
elton
sima
ponder
began
jurisdictions
qb
contingent
##ols
福
##nian
indicator
densely
aggravated
farmland
cabin
##dp
venetian
[unused105]
##lone
compass
1650
##ege
suspicion
##rco
##qua
行
##cliffe
mia
subject
poorer
campaigned
##nting
interact
wilder
[unused338]
frost
heresy
journalism
##tens
kiev
##vot
chorus
##amp
field
satan
passageway
redwood
owen
cater
1811
greek
trunks
laps
momma
bows
revolving
reduces
##rip
rail
next
coffee
##za
##nl
premature
unspecified
##bilities
celaena
dubious
আ
bram
proliferation
cub
whilst
declares
variety
ry
##rzy
##nn
explicit
pounded
##ster
banished
mounting
maze
splitting
##turn
##brook
really
bobbed
shut
mentioning
lorenzo
##imated
ached
described
plea
ghostly
behave
siam
rules
etudes
##lin
24th
1603
carrie
blossoms
##anov
forests
##oven
122
sol
townland
trenton
##夫
juventus
chaos
motives
##ided
unofficial
##fying
pardon
##陽
##otype
owes
343
##isson
№
##sper
eden
1737
iconic
beetle
##æ
banco
drove
affair
dealer
信
controlling
1709
神
425
昭
olympics
##hire
##oum
ended
ζ
colleague
pictured
wainwright
eun
transit
surveillance
packard
louisa
slaughtered
brew
willoughby
lifespan
accomplished
##gau
rudd
witty
大
panchayat
compositions
##ᅡ
##dium
bourne
[unused854]
##nk
corona
sect
jelly
[unused552]
michigan
goa
##uve
rector
232
applicant
carnegie
muriel
veterinary
1801
##evic
loco
##iidae
##wyl
chow
1994
shillings
longtime
shelters
aristotle
##ayan
sacked
tugging
##ellant
##onte
##cate
stephan
persona
injured
saxophonist
inverse
martins
nagoya
governors
bearings
layered
##abas
portals
javelin
1611
stunts
reece
[unused143]
considered
##nity
profession
task
ʐ
[unused815]
chatting
##lizer
##ross
connects
scholarships
##kney
click
ك
updates
##osi
##թ
christian
bought
promenade
pc
wait
pleased
##ज
imagining
##pan
particular
immediately
constantin
hundred
##omi
##rrick
##tti
[unused636]
gemini
rented
##rner
seemingly
economies
[unused710]
pension
hoffmann
##aker
##pled
designers
coasts
##nded
##tum
portrayed
72
episcopal
faculty
##wn
motorway
##iza
jail
##das
efficiency
potent
felix
production
whispering
greece
ordnance
di
impatient
##lik
chick
थ
owens
delicately
##cuting
orders
jason
optional
styled
##ウ
somali
cook
##bes
propped
loyal
[unused953]
tail
painting
strings
equestrian
bonding
##sion
ש
##air
frantic
drumming
capitalism
practice
disbanded
##け
ri
aspect
shoving
tumors
##ores
mozambique
weighed
ₛ
statement
」
incidents
##ulsive
monde
##dun
[unused108]
without
clarify
##ս
##elle
shortened
confrontation
exits
[unused986]
markets
beef
mammoth
kitchener
devoted
nocturnal
##oco
armenian
observatory
##iii
##gara
judge
mortality
hates
innovative
demetrius
##勝
have
viper
rye
receiving
encoding
##お
stabilize
electorate
democrat
passionate
cleansing
millimetres
duchy
psychologists
##lean
prowess
##▪
##ght
much
##ভ
[unused86]
your
session
cleopatra
##zong
##roid
bruises
desk
darcy
enterprises
thorough
balkans
atlantic
##ental
[unused936]
shaved
dover
oversight
[unused649]
40
implicated
pillows
baking
graphic
mcintyre
geologic
negotiate
cupped
emblem
jul
milne
iqbal
₍
besides
rapidly
##12
treasures
britney
##佐
fencing
locations
##eu
clearly
finance
screwed
talk
specialization
rossi
##rates
junior
priestess
ownership
royalist
pact
transitioned
##dor
##δ
reach
unite
є
haifa
oakley
establishment
manipulation
html
auditor
howe
forearm
obey
yacht
303
speechless
popularity
innovation
instructors
ballard
ella
badly
mixed
英
whip
aesthetic
incompatible
archbishop
whispered
amalgamation
listened
☆
babu
computation
₇
##ogen
joyce
pulitzer
verify
##vite
zen
bautista
hovered
flown
peterborough
earthquake
fishermen
neglect
lucrative
supper
underground
buff
stalking
ancestor
296
##cm
illuminating
europe
##ort
"
rained
###
##cie
mckinley
##ね
1782
olga
sane
whale
inquiry
##hom
fourier
##ory
##dley
lindsey
bernhard
1747
sax
gypsy
reliable
hanging
sails
##hof
jammed
contents
exactly
aide
highlanders
glided
banda
reproduction
angled
mabel
mastery
##ee
suburb
##ظ
千
neared
firms
vu
pete
214
##ium
google
##ial
testimony
shaun
creamy
hull
distress
threaten
##vish
synchronized
香
##ption
dynasties
approx
1985
fiji
##zel
##48
synthesizers
lots
##had
zachary
extraction
technician
send
transgender
chancel
##bil
lecture
politely
luxury
diagnosis
www
showcase
was
hindwings
##া
rains
pairing
conflicting
chuck
##fted
##ale
screenings
correctional
##gr
tasmania
[unused68]
strap
##pipe
drunken
attempting
gradually
broader
fabulous
##ж
##tea
timetable
fact
я
∩
passion
##miento
patents
adjoining
[unused701]
bile
talked
##lated
whimpered
##in
yorkshire
330
hid
seventeenth
vaccine
##lth
streak
[unused779]
meanwhile
smiley
karlsruhe
melting
standardized
hats
rudder
escaped
ranging
kinship
hirsch
backstage
wellesley
consolidated
harvey
chewed
##xin
calls
tracking
##rine
serene
sandwich
sharing
##ense
wounds
##rso
[unused565]
egyptians
[unused853]
on
titan
prodigy
bitterly
head
undertook
connected
analyzed
pursuit
imported
duet
##azi
congo
##tel
vassal
##time
nov
rendezvous
obscure
warship
neutron
poured
disappearance
assuming
turbine
cracks
corps
bothering
streamed
dire
##tiv
anne
##₉
a
川
diesel
##rella
noah
respective
silvio
##arty
sacks
disk
[unused758]
marines
paterson
civilizations
suspend
twin
flinch
##oin
flower
undertaken
##neck
bribes
broughton
posters
nexus
##⁵
notably
##suke
elites
pack
mahogany
framed
##ired
##vc
pay
##原
thinner
##yeh
recognizing
prelate
functioning
hanoi
johan
##eurs
packages
duo
chronicles
victorian
fiery
cruising
kilda
guilt
forth
pasadena
convert
##oue
[unused372]
equals
waterloo
ज
##tub
rely
flung
cbe
reykjavik
journeys
macedonian
domino
京
splendid
dissatisfaction
seeker
bulldog
kenya
threats
usage
effectiveness
心
consist
bath
suspension
starved
un
thankfully
markham
townspeople
maternity
brian
supplying
##bro
aid
combine
moines
橋
concepcion
carlton
##南
fiscal
prophet
##gman
committed
510
archaeologists
census
travellers
artifacts
speech
sire
clients
scars
heather
metabolic
drury
andre
attacked
sliced
##zone
##v
concession
psychological
1860
eta
##hei
exploded
##erving
haas
effective
electronic
identified
carlos
investigate
gubernatorial
sparkle
1652
indira
wartime
bandwidth
113
##bari
later
1853
heaving
sentiment
solids
hotel
##ger
clit
siblings
pioneered
##logical
coalition
ufc
surprised
urbana
##gar
layer
jeep
oricon
absently
##quet
replacements
[unused156]
ए
ᵤ
bobby
necklace
army
twitching
overcame
##itte
parallel
friendships
likened
01
designs
##『
##tri
travelers
##ichi
tighten
fishing
##त
bad
##nostic
2000
##nde
chooses
pitched
qualify
eco
footed
animal
adapt
perspectives
convey
##國
323
145
gasped
aspirations
affiliate
grins
門
##ucci
displeasure
##jar
པ
waist
##目
genres
drake
[unused164]
tyson
tex
views
nu
##mics
macro
[unused775]
mobile
jimenez
青
chants
##訁
##aa
astronomical
derby
##per
framework
1500
kaiser
midtown
interfering
##ouin
simulcast
commemorate
christina
subset
uta
glance
horizon
parsons
rte
aegean
pen
concluding
aluminium
doses
tore
stationary
##ever
deer
prints
occupies
backstroke
reserves
prose
³
##hawk
##q
ssr
##charged
raiding
dwellers
[unused825]
[unused201]
##rcus
attachment
[unused0]
estates
vo
trash
dane
determined
driveway
crises
laura
straits
##ra
neptune
walsall
##37
owing
derived
masculine
daytona
##dak
torch
pollution
coloring
diamonds
dug
entrusted
##王
advertisement
resist
##kel
1623
recreated
aeronautics
elbow
ð
fascination
billings
snail
##vision
commandant
lobbied
151
vice
exclusive
finite
multinational
ventured
rehab
[unused217]
secondly
roundabout
grip
stare
burmese
ว
hearing
registering
##izzly
##hdi
##（
magnet
[unused796]
##ctus
##leigh
soared
omaha
shell
ʳ
##mined
pathways
colossal
great
websites
disgusting
considerable
finished
##cellular
amount
##ando
nathaniel
wigan
betrayal
tornado
contractors
guitarists
{
bio
stormed
insight
syndicate
oldham
##ogical
1825
fun
reverted
##ks
atlanta
evolution
apprenticeship
oppression
mainstream
implementing
warriors
groan
averages
restore
rock
##ova
halves
##estra
sober
currie
obtained
gentleman
₈
isil
sermon
competence
happens
[unused227]
photograph
##elles
adoptive
##aya
##sboro
##木
##л
mercedes
institution
incentive
notion
cocked
[unused635]
##oro
leto
summons
宣
looking
##ability
canal
purdue
##dora
149
climate
walked
transitions
##lou
tortricidae
clergy
pleistocene
[unused397]
υ
་
altered
vital
reaper
streaked
il
##iana
roll
dir
continuation
gospel
litter
tremble
321
juarez
fleets
aquatics
mocked
demonstrators
prefers
equal
##nna
shrine
##acle
77
gymnasium
sul
ammunition
covert
hayward
rhyme
##ʷ
cognition
ronan
scotia
##held
anatomical
rupert
さ
preserved
centuries
⁄
suspected
291
gardens
deluxe
differentiation
para
compressor
organizes
cecil
orlando
memory
ray
nay
discovers
investigative
##ently
passengers
prosecuted
api
##ler
detention
venues
volga
facial
misunderstood
advantage
knelt
neighbouring
barony
##cytes
levine
dorothy
dwell
draper
mathew
tonnes
##urable
revisited
##ksha
##cade
ze
possible
せ
slender
##tl
indicates
goodbye
ties
##oted
ァ
zombie
risks
reasonably
backed
bye
crescent
embassy
netflix
κ
miguel
≡
stammered
##boro
transfer
implicit
mesa
comparable
crabs
clapton
##●
leapt
antique
airways
##shing
##sum
maia
##保
[unused386]
obsession
patrice
##ョ
kicks
##ᵥ
folds
patrols
surprises
##night
disciplinary
heir
##aster
manly
dismissing
resonance
##अ
doorway
macmillan
camille
幸
450
blackout
gareth
auckland
##away
shrugged
augustus
阝
phi
training
kira
jars
leads
showcased
express
excellent
##ᴬ
humans
muttering
##viere
##ii
speak
dracula
kaplan
|
edited
naturally
footsteps
950
##culus
pistol
sighed
barrels
milford
ford
experiences
exaggerated
##claim
inversion
turns
geographically
displacement
yards
alvaro
remix
units
210
textual
noodles
carries
##ן
favors
arcadia
notions
##ס
lived
truly
##tera
comte
donors
microscopic
##bial
[unused208]
due
vegetation
papua
nsa
medicare
##ising
smug
puzzled
pioneers
speeches
staircase
isabel
particularly
feminism
forums
teller
navigator
shallow
reigns
brien
brushed
venezuelan
act
rest
whether
ye
guys
##ters
hunting
vanish
elusive
1810
legend
salary
orphanage
river
ל
resulting
##pel
steamer
littered
persisted
stranger
innovations
nightmare
[unused849]
ile
bulb
[unused893]
##breakers
##lam
##avia
murderous
pandit
excluded
maria
samba
mitsubishi
tutor
pianos
indicted
ba
ego
gladstone
domenico
ethnic
##tenberg
##tted
oblast
kilograms
quartz
1660
yukon
mascara
##rrado
ski
mercenaries
story
[unused730]
cylindrical
motion
reality
penang
algae
decide
305
catastrophic
##orted
・
neither
maintaining
##rop
grimes
parasitic
stricken
camped
##dable
##ª
##ᅲ
solving
accused
##icum
##uan
acacia
catalina
##enberg
lamb
frozen
europa
broadly
##miya
did
1855
nuclear
fashioned
denton
karen
jaenelle
heidelberg
真
alternative
[unused551]
##ulu
##anna
glasses
ukraine
##カ
halo
specialist
tibet
resigning
flexed
uzbekistan
##mento
joachim
mutations
##ows
stanza
##lary
joke
gupta
rolf
develop
promotion
nitrate
letter
##wave
##ு
explained
1826
refers
canton
gorge
∨
liberation
belt
wear
treasurer
##tropical
##rone
156
##df
footprint
eyed
mango
absolutely
identification
med
minority
##routed
darby
overcoming
##tell
passports
##key
##fold
unpopular
followed
5
##ant
exceeding
##ricted
##gm
veracruz
278
##fleet
##八
bedford
##nction
otis
classes
melt
teresa
hope
##print
servant
signed
parasites
trumpet
cooperation
misty
##liga
domed
everything
stated
associates
welcome
deployment
bumped
restrained
shuffle
##ive
faintly
prepares
##rien
##dier
[unused141]
blaming
marlene
[unused367]
speculative
relation
##att
[unused914]
##hawks
belgian
doorstep
##ш
excused
tendencies
routledge
stakes
greeted
aligned
つ
planet
outstretched
none
jumper
padua
##"
suggest
shift
sterling
cousins
begging
##turing
##「
empowered
1981
freeze
handgun
stuffed
dam
farrell
##kken
alligator
prizes
##yck
spins
esther
##ditional
wider
[unused377]
dollars
langley
mixes
fragmented
sunglasses
tapes
nigerian
promote
ll
users
contributions
maturity
hymns
people
1916
anal
mtv
three
conservatoire
[unused245]
##bolic
someday
castile
indices
##ᄇ
freaked
229
##diment
immensely
np
##cake
amar
emphasize
##rdan
scraping
delilah
##⁴
##dson
shay
comical
decreasing
shuddering
questions
marine
##udeau
obsidian
strong
handball
##inger
groves
graceful
amelia
德
##uter
sighted
pat
agenda
burns
bag
pool
embroidery
discomfort
##cing
criticism
і
nc
##lity
persian
scarcely
swedish
appellate
guerrero
gangster
inquiries
mainline
##শ
incorrectly
boulevard
petersburg
slavic
adjunct
sort
marble
131
к
trail
enabled
sings
insignificant
crazed
##‡
##good
necessity
ours
mariners
maternal
##quin
wastewater
joshua
formation
stepping
gestured
ff
treatments
expands
qualifier
katy
meridian
solidarity
thick
1624
luckily
explosions
chancellor
reassure
managerial
##jos
romanized
illegitimate
##falls
artists
denim
##stadt
rooms
sap
##ere
##54
consequence
inferior
1768
hurriedly
collectors
easing
minimum
accomplishment
stronghold
##場
representative
blaze
howie
##ए
gonna
bracelet
##bang
canucks
msc
##tsky
settings
lightning
wharton
lois
pakistani
peterson
shores
substrates
wine
##rified
inferno
elements
∪
氷
announces
fruits
diploma
北
know
##ain
blu
poker
styles
coach
directly
ग
charges
##dates
kenji
pike
chunk
tariffs
anchors
lunch
arrival
spiral
##abia
[unused273]
censorship
blogger
[unused254]
silvia
[unused416]
choking
baron
politics
pledge
decreases
##ness
shuffled
##tative
storey
academics
##urus
abolitionist
invited
generic
scientific
heidi
escape
stomach
architectural
griffith
frustration
outfits
onboard
##az
dripped
[unused622]
2
spears
ridden
floats
##星
nec
teams
foreign
##encies
choreography
pupil
joao
gatherings
trajectory
bob
unesco
serbs
郎
observing
##崎
##17
gong
prolific
useful
elevation
[unused288]
シ
stares
emirates
##dicate
nina
intently
ursula
##shida
elliptical
[unused485]
evicted
techniques
relevance
puget
у
palatine
absence
slapped
##ressed
suffers
fuji
bond
groundwater
##tt
vols
engulfed
hurley
##atter
bets
##gated
sensation
grounded
alumni
jarvis
mlb
enthusiastic
mixer
##lized
hamlet
portsmouth
##thing
##そ
##ₕ
similarity
sequence
gritted
tributary
##chua
ama
weed
##sca
##կ
platforms
##α
archaeologist
discontinued
dune
##lland
gamble
gma
##ח
emancipation
caught
collaborated
samoa
faint
undergoing
editor
wang
westminster
ascending
refused
##missible
[unused499]
finnish
offered
##acio
taunting
##storm
computed
aden
aware
montevideo
fisheries
monterey
##mise
江
neural
##mers
akira
rochester
jerusalem
levi
mania
vladimir
presiding
##ko
archeological
amtrak
[unused244]
schmidt
bowman
displays
##wley
##systems
dock
disbelief
[unused289]
##bridge
##overs
onslaught
euro
madagascar
1640
indefinite
sanctions
##ᄃ
lies
isaac
##ori
overhaul
progressed
cuthbert
¹
destroyed
cornered
##partisan
wolff
[unused295]
closer
##icative
apprentice
roadside
##fia
tuscany
tastes
splashed
##llas
##for
bared
upper
diagnosed
hush
record
[unused206]
surrounding
clipped
russell
qualification
decorations
rn
##{
seven
soy
kenton
utterly
turned
wig
##井
vanderbilt
bowled
davenport
##mouth
ind
30th
bbc
chamberlain
yamamoto
dressed
build
groove
racism
neolithic
reveals
[unused621]
ʀ
resources
concerts
insignia
1827
prayed
ups
alam
assortment
bot
museum
relax
rarely
angus
manned
emanuel
berries
sense
afternoon
##lwyn
olivia
1635
tearing
clashed
wise
##ories
##pit
##merie
societe
manipulating
##che
rica
intellectual
##楊
desperate
1997
kindly
##མ
[UNK]
thermal
shark
##dance
lunged
ヒ
##yer
headlines
chimney
israel
warn
monasteries
243
formal
conducting
保
will
brute
horsemen
ordered
mathias
lied
leak
ᄃ
oversized
コ
inactive
##lez
1626
allegro
ষ
dirt
plaster
##ᆨ
##cend
paralyzed
mojo
budapest
alzheimer
weeds
rates
[unused139]
defending
flap
su
##御
feasibility
ellis
##minster
##⺼
ecole
apr
[unused757]
sweeps
guineas
blocks
[unused475]
kissed
schooling
##ope
ג
remington
mythical
refer
293
screened
prologue
german
awarding
quarterfinal
[unused112]
cutter
montpellier
zeppelin
tyres
gale
##lick
reinforce
utah
##tery
shifts
[unused290]
ve
##nium
##boats
1919
premiered
stabbing
\
cricketer
##nding
curated
##hesive
beale
viable
adhere
beaufort
critics
torso
nolan
statesman
genesis
##ан
madden
while
le
dubbed
brook
cypress
universities
cortex
incomes
##ty
polish
strict
mammalian
[unused429]
1854
sophia
piper
tough
[unused946]
smashed
mothers
stripes
##arina
2015
opponent
bard
educators
limiting
baked
##uddin
oilers
##peration
ノ
##ception
serena
tennessee
##akes
too
cooling
migrated
1992
accompanied
##chet
delivering
bali
illinois
academie
estonia
constantine
gregor
##thal
regression
##উ
explored
##lad
lds
swirling
writings
batter
caldwell
jeanne
ip
##smith
pickering
##ver
anxiously
##chner
philips
an
mckenna
electro
rats
collective
mustered
##dl
fertile
[unused869]
retains
lal
confines
##virus
sword
first
waterways
##hearted
invariant
##ovo
sw
镇
pinch
wrought
##mac
calves
sons
map
coaches
das
schemes
##inas
##nst
protruding
serial
perished
phenomena
##sibility
##hara
tina
文
##bbing
morley
wheels
crater
##ac
grams
scarf
utilize
university
lifted
##lar
rails
connor
limerick
wheeling
adler
33
snack
[unused686]
1949
positively
labelled
ostensibly
aerospace
restrictive
timeless
將
bombed
polk
selects
##ო
grades
lanterns
wrist
##ワ
lever
tempting
duck
##±
infected
newcomer
##lid
##le
venue
frankly
suarez
architecture
michel
##urne
domestic
defend
##ゆ
parkway
barnsley
secret
supports
marginal
143
[unused836]
##zzled
counting
##eter
quarterback
atrocities
－
implementations
truth
exclusively
lisbon
mafia
touches
##right
##rricular
##ici
administrations
regarding
tracks
cardiovascular
viz
invertebrates
dealings
breeds
##logist
ein
curious
ki
##uchi
bravery
boycott
restraining
[unused430]
gesellschaft
plan
starvation
##mission
##wt
remote
marcus
##ラ
##ckman
communication
worcestershire
lush
lash
chromosomes
##ץ
photo
roam
cape
zimbabwe
pitches
intention
##山
tracy
mayors
manifested
##州
scan
declared
rand
donna
toppled
embarked
##dog
namely
45th
[unused533]
##х
glared
##zumi
twenty20
##tc
let
belly
turbulence
locals
peyton
eldest
##hay
triggering
mat
bathing
penal
clinton
steamship
##onale
piers
pm
dismiss
[unused328]
µ
savior
hugs
pornographic
skills
hulk
stalls
##tman
haul
ram
sailed
sank
chemotherapy
פ
friday
[unused510]
foul
##lane
thousands
sloppy
##lind
environment
sacrament
negotiating
left
actress
[unused97]
assemble
mann
repository
jim
nowhere
##section
hugging
##cre
vocabulary
##ours
sumo
floods
##cini
names
##apple
##⊗
oxide
##uti
pitted
チ
himalayan
up
demographics
needs
facilities
democrats
##ggio
horizontal
##berto
##isen
flights
pleading
wrestlemania
[unused756]
ieee
hillary
searching
seafood
probe
##aus
##loe
naomi
##dies
崎
scanned
symmetric
affected
bold
nichols
stellar
##男
montenegro
rosenberg
leader
murder
row
##ater
地
242
##rance
famed
[unused37]
zhu
sensations
heinz
metis
##信
1857
damaged
[unused851]
encountered
mommy
ecuador
singular
responsibilities
cleaner
[unused913]
accessory
cremated
egg
writes
##raya
graders
kerala
strides
ந
##hell
ernst
「
offspring
they
sutra
duncan
favored
民
skulls
sheffield
null
johansson
sinister
imperative
##rin
##ff
‚
subtropical
##cars
rowland
scented
metropolis
harta
co₂
flourishing
geographical
hears
е
##pressing
##eda
innocence
commemoration
##elis
##ished
bends
corresponding
bubbles
punta
teaches
##jack
memorials
substitute
peeled
attendants
digger
##mp
##bos
expedition
felicia
tinted
eventual
provost
visitation
##ys
vulture
results
lockheed
disadvantage
illusions
deficiency
ल
totals
─
##ey
evolved
wisconsin
##rium
mentions
demonic
laval
daytime
##rated
cut
replaces
declines
infectious
355
elections
cupping
browne
1902
γ
warwick
shaken
rover
##iere
dyer
move
jamal
putin
##far
mag
spontaneously
115
toxic
regulation
stepmother
meeting
strode
amsterdam
##dote
1970
##fires
viewing
[unused859]
nature
##ovich
sportsman
##26
disability
##vic
crap
premiership
housemates
repaired
jiangsu
webster
chocolate
##j
perpetual
autonomy
##將
水
wounding
##bus
[unused147]
lattice
occurred
##aco
##ev
keith
[unused863]
##ᄎ
dominion
##sil
paw
nissan
military
mayor
##fi
qualified
##istan
pearl
distinctly
elector
variants
playwright
##you
jayne
tanned
wilmington
mammals
kissing
1866
emphasized
identify
[unused300]
richter
kentucky
philanthropist
beetles
coup
sculptors
[unused841]
193
depths
##sov
##gnan
reunited
[unused518]
kitten
max
probing
[unused350]
blade
revenues
##dara
##4
eclipse
frs
slabs
##西
##ingham
£100
open
lancashire
##kes
leverage
disliked
circus
satisfaction
withdrawal
jennie
ɡ
ふ
##sner
##zyn
##bbon
##m
##gt
proceeding
orchestras
##nger
monuments
##uw
handcuffs
jingle
[unused979]
leaned
vanessa
lawyers
senate
consent
##ady
sling
ˢ
telecom
wellness
##hers
downed
bicycles
purported
dangerous
decay
frankenstein
abyss
consistent
nonprofit
gets
fangs
drones
sarcastic
tensor
native
##66
reduction
##eb
pierced
trenches
copenhagen
cardiac
purity
rogue
⋅
piss
saul
gardening
grouping
##sable
##阝
granite
treated
##rika
##ов
form
hospice
jong
doesn
maintenance
[unused417]
##ט
171
[unused897]
same
##aux
strangely
mp3
capt
electronically
voss
cringed
unique
yanked
expressed
groups
mickey
tallest
wherein
251
athenian
greedy
occasionally
allow
yankees
sprinted
anti
rico
conrad
670
ee
connecting
##nted
##ssi
snapping
brightest
##堂
ᄏ
##eit
practised
297
binds
orchestra
crimson
aunt
musicians
valuable
dealt
##oire
##geny
gaunt
dumping
wrap
bytes
maharaja
sr
zombies
caller
##quisite
raven
mention
announcement
trimmed
pun
saxe
ngc
dante
trustees
martian
##icio
devils
45
##rb
marches
##lu
creative
inscribed
disgusted
browns
##cki
fewer
ventral
takeoff
swarm
##ப
##llum
conditions
##nated
ville
gia
hangs
protein
accelerate
dc
adjusting
rusty
##umatic
đ
##ham
einstein
dso
##yo
warlock
damian
crust
fantasy
rivalry
damage
flowers
strauss
rumours
colloquially
past
rain
ª
faster
1957
darren
decorate
##ʌ
backbone
abandoned
105
albeit
[unused660]
љ
garion
constituent
justine
constabulary
impairment
blessings
bless
applied
damaging
stallion
°
march
##zzle
suspect
walks
##nath
spans
##class
##nesian
converge
clumsy
chandra
switzerland
suites
obviously
pictures
##ution
##zer
anymore
symbols
vale
##por
elect
##ade
ecstasy
retention
insights
li
blooms
$
cactus
carrier
policies
##cular
generates
##禾
colorado
canned
special
volley
overboard
via
[unused720]
[unused802]
cornish
sparse
chatham
##aina
##hon
630
cereal
##ת
appliances
1938
organisms
沢
71
1870s
ismail
chiefly
framing
lowest
##kali
beatles
[unused535]
apps
##ingdon
squeeze
θ
lewis
tucking
futures
dolls
geoff
[unused1]
instruction
##carbon
extravagant
##flight
nazis
wholesale
##tis
勝
rani
electrically
column
##west
##lore
strikeouts
##makers
##icular
##།
bonaparte
matrix
##ttering
steer
knockout
##rdy
foo
1832
curls
க
episode
bn
vehicle
edinburgh
[unused766]
continuing
spark
1722
seemed
wehrmacht
actual
disputed
methodist
universal
jessica
adaptation
cum
vh1
lai
rna
國
withdraw
nipple
huddersfield
dreamed
##awan
1848
##stle
vinci
##ettes
silvery
recently
wherever
carnage
revised
greer
variously
##mmon
compelling
older
##zd
denies
finalists
153
centralized
allowing
geologist
anya
crane
nikki
প
stereotypes
coulter
product
irritation
##cross
immigrated
because
show
cache
implant
investigation
callahan
##unce
##dd
fein
noelle
coral
##kr
regiment
ˣ
comprehend
tottenham
reversed
mathematician
##lithic
[unused134]
##iv
##hc
charter
preschool
680
ᅢ
##pg
##hue
hare
semantic
[unused125]
grab
##spar
izzy
##urg
doctors
portrayal
##dev
discharge
markers
forged
ratification
##rily
top
trophy
critic
##lis
##uj
alignment
fried
redesignated
bounded
180
bog
##drick
grandmaster
1703
slain
vulnerable
kidd
shouts
professorship
sequencing
##戦
doyle
1550
[unused588]
あ
##aneous
superintendent
burroughs
wept
sabrina
dei
##istle
scaling
##anies
openings
years
practically
haitian
waiting
mouthed
apical
rises
herb
ryu
##abe
hectare
silesian
hostess
##lism
eli
cv
##puted
paste
pick
ugly
containers
cabins
taps
##止
irving
saddle
richest
##ulating
skier
usable
##actic
##chal
equipped
[unused970]
strata
signing
lodge
fur
sweatshirt
1980
constructed
associations
dwyer
equipment
tyrone
lords
cypriot
[unused519]
dieter
sweat
certainly
commonly
windsor
correspond
loves
final
prestigious
astor
comedy
gemma
launching
networking
ᵍ
ca
pseudo
kong
820
[unused113]
gaped
ظ
eastman
##grin
campo
caring
radcliffe
measurement
rendering
##ع
##asia
hedge
baseman
harpsichord
##ke
realization
influences
oblivious
ambush
##nea
amidst
##ados
necessitated
د
newspaper
previously
##iae
youthful
leukemia
renamed
bilbao
ᵗ
±
buenos
lamps
##den
smoothly
peninsular
lucha
##etto
##\
burton
became
##т
cloak
1960
松
estuary
comedies
dissemination
organizing
##ы
cara
lund
furnishings
trim
pork
dixie
impaired
utility
remembered
？
snacks
##>
alleged
[unused62]
grimm
lagoon
opposes
[unused70]
sarcastically
adventure
controversies
stats
house
wallace
deserve
sikhs
lydia
watered
mary
ན
rebuilt
murders
benson
ま
twisted
complicated
##」
laurent
mellon
pantheon
novel
##tick
deprivation
mask
influenza
gan
willed
belonging
archway
##of
summer
necessarily
publications
handy
##orra
pcs
##~
interactive
preparations
wrath
detect
analytics
quit
interpret
finishes
##ος
snooker
citadel
rockefeller
intentions
una
franchise
crouched
##text
##cken
##wr
##war
neck
з
renal
metabolism
arias
wheelbase
##kim
diverted
w
##dication
barge
commerce
bert
worlds
warships
princely
##inging
##bert
ruby
jersey
clara
usaf
violations
grandparents
resource
gazette
⁹
chi
shang
agents
reappeared
##fs
floyd
supervise
yearly
##channel
depot
percy
[unused220]
hiroshima
carly
games
baptism
sponsored
novels
consonant
respectful
unpleasant
villain
vanishing
begs
moisture
paramilitary
mcintosh
infantry
conviction
devote
taste
##udi
[unused699]
##igh
tyrant
##⊂
puts
assemblies
magnate
based
juno
2017
scrubbed
dining
sonny
ʂ
acknowledged
hostilities
[unused314]
faith
endeavour
shows
tombstone
flared
trapping
interstate
incorporating
##nco
referred
enrolled
situation
mahmud
##rim
tall
isolated
psychiatry
nepal
quickly
figuring
″
##ira
irish
typically
parlor
cheering
sidewalks
##ode
famously
##ono
institute
##fk
##nier
grazed
odd
myers
elaborate
##icus
hose
mayfield
##logic
##ox
wiltshire
[unused52]
alternatives
filtered
alec
stupid
vichy
##ively
inducted
##see
艹
sparkled
gig
##unda
wolverine
horses
##copic
embrace
##প
cedric
contract
##tical
doping
##ating
irregularities
interference
airbus
recover
removing
simulated
marcia
homemade
##hand
foreword
flash
[unused706]
job
claimed
##f
##itated
roaming
yielded
##ua
2d
pearce
cobalt
montagu
##itch
jing
flooded
which
circumstances
pup
correction
+
drank
##ᄏ
angels
##nsis
poke
favour
signaling
parma
preserve
barriers
pamphlets
escalated
[unused75]
extreme
[unused702]
gibbs
trumpeter
##verse
baffled
remarried
##rgen
shanghai
1947
card
monitored
consistency
tuba
niagara
amazed
##pped
any
成
lawrence
mandolin
##pas
brightened
bitter
biker
competitor
clements
vogue
transactions
crank
ground
two
weekend
natalia
##њ
rubble
strung
analyze
slade
activate
ligament
tonight
##beam
##tto
1968
##paper
praise
hoover
flavour
providing
wrapped
##guchi
remained
seeds
##ng
futsal
subspecies
ability
animator
##ew
[unused523]
cincinnati
##bey
escapes
##vid
##iti
1828
59
ally
compatibility
sipping
genevieve
451
stacey
replied
jeremiah
##hammer
セ
pv
commissions
sac
##nagar
morphological
floated
holiness
##sb
メ
protected
symmetrical
brave
suite
rounding
tired
gettysburg
spat
exile
##hil
[unused773]
awaited
choi
մ
spanning
aids
tyne
kwan
nagasaki
press
800
##tina
hana
##arian
##oured
awards
pods
cult
caesar
ladies
[unused427]
stroke
mccain
own
ops
##আ
bsc
keating
ƒ
kingston
##gill
burnley
##uh
react
tobago
blue
dayton
dod
guessing
vito
##‚
reminds
category
[unused229]
crowned
##pet
lauderdale
sincerity
##rden
omega
torches
blanc
generally
##ull
lighting
jackets
amore
allotted
overcome
multicultural
maverick
souls
loses
##yoshi
hiatus
saint
security
omnibus
travelled
anderson
secretaries
rhythmic
talking
1200
doomed
pee
interactions
redhead
rejoined
sensual
howling
predominant
molecular
condemn
root
foreigners
branded
stability
laughs
[unused149]
showtime
inventions
dirty
ascent
scents
turquoise
##น
comparatively
##bered
orphan
devil
jealousy
¤
η
partners
certain
dentistry
##urs
negatively
gladly
criteria
knee
basement
ת
virtues
benefit
sai
shadowed
indifference
##hing
compulsion
sentencing
passed
speculated
respondents
adjust
finland
##疒
jackson
ι
а
unexpected
warming
##oya
convicts
[unused681]
extremely
day
rendered
guatemala
jax
[unused547]
shifter
clermont
##氷
##უ
[unused466]
warned
rolling
northwards
quartermaster
shifted
sparsely
facilitating
intimidating
encouraged
##500
prophecy
theo
authorized
##raße
technicians
##phon
stewart
serie
oath
##bry
subordinate
##法
[unused275]
nicholls
[unused819]
##grate
liga
robbie
beg
keyboard
[unused61]
intend
shaky
kamen
beatrice
boulders
minerva
flats
bail
cocky
orioles
##dhi
##⁸
distal
combination
baronetcy
flirt
howell
[unused724]
benefits
tissue
harmon
restriction
[unused747]
cadiz
∞
convent
australian
##a1
substitution
bite
[unused38]
[unused57]
ge
##ট
urging
index
exceed
ث
cmll
sql
verve
gustavo
pawn
professor
optic
inspire
poets
bother
watershed
bothered
printing
##stick
##res
##lr
astronauts
##ments
officially
ten
enter
##ի
delgado
softly
##ike
toni
pure
##ipes
supervised
lawsuits
tristan
stockholm
cycle
released
beaten
hasn
##ult
[unused374]
[unused567]
203
plurality
##γ
reminded
rites
relay
hemingway
kawasaki
cessna
##placed
##bu
expenditure
cardinal
glendale
energetic
enjoys
bernie
¶
1795
ח
dominated
shadow
hooker
armada
##.
sud
kenyan
donaldson
grumbled
##zes
southport
dept
##down
amadeus
ball
lectures
eliminated
catalog
disused
2nd
##hism
##₎
vs
resin
##ener
##→
pushed
teaching
rejected
##nan
ferrari
lagos
##〜
pyramid
detachments
ministries
lone
##burn
spirits
prolonged
ledge
arrested
lingered
##erted
nephew
modelled
williams
foe
##deh
platoon
thayer
##dorf
whisper
clutching
##oia
405
escorts
boomed
susannah
avoided
##que
##book
kia
bills
richer
installing
grain
dispersal
て
[unused786]
stat
props
##yad
murdoch
##toy
navy
bauer
recommended
culture
1728
resided
э
charitable
dancing
##oc
haley
bicycle
interacting
##saurus
rune
accidental
##caster
##pkins
kerr
dynasty
distinct
pleasing
[unused450]
superstructure
ₘ
ancestry
##line
utmost
benedict
[unused167]
##後
glover
780
caressing
passenger
trusts
puebla
##jad
premier
pocket
roast
donald
airspace
##rma
aidan
henderson
excavation
cheaper
sloping
historian
ramirez
mccoy
starters
小
分
bellamy
sunshine
extremes
pretended
virginia
1952
widespread
##，
situated
ears
sebastian
##rath
berlin
skipper
single
夫
¹⁄₂
fuselage
largest
santos
singled
bayou
ள
mitochondrial
##oshi
vernon
trondheim
1646
##ic
₀
evacuation
##—
verbal
##pur
maize
yarmouth
pushes
nic
cultivation
anthropologist
unionist
blankly
commuter
scenarios
establishments
sidewalk
nj
comments
##less
sep
##vi
drilling
##∗
ω
les
voyage
orthogonal
##郎
##col
##upt
attaining
ultimately
##gingly
tricky
reclaim
vincent
ham
multi
guard
microscope
highlights
／
synthesizer
snorted
interesting
geraldine
electors
larson
metre
alcoholic
got
students
##ril
magistrates
extraordinary
leger
bosnia
emotional
submitted
yiddish
##र
##list
selling
andrews
lithuanian
pondered
##clusive
buses
mph
fury
draped
ipod
##nage
lakeside
##ト
197
bump
removal
jewellery
clark
~
##ita
shed
pulmonary
io
##ials
swirled
vaulted
staffed
munro
leaves
mai
archdiocese
alexa
monarch
twenties
##野
##hyl
constantly
stoke
allergic
proceed
tq
intermittent
edward
newton
orchestrated
allowance
trophies
toured
hostility
insults
##th
##pine
huddled
fetch
[unused131]
greenhouse
avon
shipbuilding
wendy
steward
campeonato
deportivo
kosovo
ท
170
read
antiquity
[unused32]
97
randolph
##connected
galveston
х
##tok
##花
cds
##ground
religion
ivan
grabbing
↑
depending
slack
dora
brought
##bility
##lova
[unused790]
alabama
cables
alexandria
##around
myra
cock
luggage
[unused604]
statistical
25th
whitman
##im
legislation
theatrical
robotics
investment
merging
doha
triangles
##dermott
becker
##〈
gripped
betty
bordered
##э
earning
♭
inventory
26
fabian
receivers
rituals
1790
##kker
feared
mini
wreckage
shatter
ล
empathy
##ught
##ons
meadows
activation
respects
cassidy
umm
宗
ns
militia
welterweight
blindly
days
commonwealth
eternity
##tz
washing
vacancy
pit
hasan
##↑
cards
compared
kent
##tron
moi
dodgers
acquainted
城
many
sonia
##tance
oakland
tokyo
slant
##xley
beirut
stevens
algebra
##esian
##orn
mostly
boeing
flea
maharashtra
investing
claiming
##tan
linda
ghosts
naia
9th
[unused595]
caretaker
motown
feng
##sti
##zal
exploits
info
##glio
holders
goes
secession
interpretations
rag
demand
##ret
palermo
derive
##ezer
tulane
courts
designation
##berg
##jan
wax
freud
aryan
delaney
##aton
sectional
applying
##”
##•
uss
analysts
##rts
contacted
dump
1890s
##ast
educate
##ein
sasha
swirl
von
ت
roles
terrestrial
dubois
eliminate
eyelashes
##ʁ
transferred
estrada
theme
outlined
est
##vert
##ட
architects
pony
sinks
guerra
##torium
##l
960
mocking
ᄋ
1856
accountants
familiar
myth
recognize
da
fungal
sp
madeleine
frontal
peshawar
##耳
##beat
copper
pad
departure
congestion
opt
binoculars
remark
eurasian
conveyed
##church
##phi
environmentally
feudal
sergeant
awkward
clones
##pw
relate
##erie
stopped
owned
shield
##gonal
ferry
attends
##tr
学
orchid
grew
##nessy
accumulate
absorb
enabling
upright
maid
geek
nova
marissa
cyclones
75
##pace
ᅩ
curry
interview
##ets
nor
calder
worsened
##nica
blank
2014
##ᵗ
problematic
seeing
lorraine
berwick
duane
obituary
turrets
payments
domingo
seek
##rada
promo
pont
manfred
[unused241]
ontario
scots
inform
cartridges
supermarket
arrogance
raided
ʎ
奈
jacqueline
herds
godzilla
##hem
##urai
penis
unsuitable
scowl
[unused181]
olympiad
126
abnormal
bunk
congressman
keys
主
##cultural
pressed
hawaii
sentinel
scrub
titans
budgets
frustrated
serving
98
##語
readings
##llation
を
software
smoked
1714
croix
axel
defamation
comprised
exchequer
proclaimed
breath
##eim
definite
kid
letting
##lings
referee
[unused197]
tajikistan
##teacher
supplemental
preferences
##koff
attacker
[unused153]
wingspan
codes
learns
priorities
playback
##uga
beating
patrol
220
[unused568]
square
abroad
courtesy
retrieved
saline
sucking
slopes
##ια
##ouring
[unused639]
labels
marcos
bush
dalton
oboe
vamp
pac
fitzroy
hips
##wear
##ße
values
bonds
##lles
marek
##つ
fiba
tenant
##adt
##ea
mythological
frequent
vita
taboo
corey
##ffer
า
kidnapped
farming
array
darting
calderon
client
puppet
sweetheart
camera
##lined
advocates
reindeer
##my
stalked
cinematographer
repeal
[unused728]
locker
##boot
trustee
良
##ord
transatlantic
domination
plausible
ᵢ
reconciliation
##eman
troopers
##adia
middleweight
[unused505]
denise
trends
40th
ping
dolores
pollard
leather
##lot
kemp
mcgregor
toledo
deng
tensions
##rdial
##mpt
ɒ
clarissa
##ugh
##nzo
bobbie
##otide
##cius
##tail
1634
[unused557]
clarinet
grandchildren
36th
##week
biomass
##bruck
ruin
leighton
meek
rams
nrl
february
##thic
##ries
reject
##cona
##arium
hood
corresponded
##ʎ
whose
##dom
##gies
1815
armament
deafening
sensed
combustion
ends
studios
spectrum
peruvian
letterman
##ᵃ
cyber
##古
##qvist
memoirs
memorandum
malley
flew
##oth
cardinals
cellular
electrons
sweetly
coordinated
##dc
match
flagship
dumont
##rem
turbines
nbc
1683
closing
annum
##tson
scans
##cp
go
watches
luna
doi
receive
mart
stilled
frescoes
documentary
uruguayan
conferences
[unused349]
##lson
reaching
chuckle
stops
bishopric
tracts
[unused938]
asahi
backside
pillar
brno
ultimate
consolidate
consecrated
nests
might
autism
manufacturers
nino
sho
##estinal
##rol
hearts
barton
medicinal
convince
honoured
##breaker
##章
there
1644
jogged
inherited
##wind
ferdinand
ʼ
ic
connect
eh
tending
groans
feet
motioned
##hen
1824
promoted
molded
vortex
##森
affection
1679
interception
exploited
hispanic
harald
compensation
looks
voter
mummy
##ₑ
1914
野
suggested
skirt
cooled
employing
##boys
claudia
sylvie
##40
ezio
bret
##ms
succeed
pulsed
##gement
rocks
##genesis
venezuela
##pu
reich
##sman
resurgence
supervisors
medieval
sur
##star
acknowledges
1729
##ury
sedimentary
dime
buchanan
calabria
188
sbs
[unused490]
cat
arrest
erotic
│
binary
trained
activist
##tzer
##sos
extent
##ops
trains
reformed
cheney
buckle
##zee
heaved
trailing
##セ
burning
disaster
25
##ib
ticket
content
cadets
irvine
##eses
activities
##itan
1787
##rift
lion
reflex
daryl
##lov
caracas
maids
sections
jonah
railroad
wraps
viewer
font
symmetry
rotary
##ried
[unused569]
##sley
sensing
compressed
##rked
texas
accumulated
boca
grafton
renee
harrisburg
日
urged
shiver
##34
spaces
в
##thesis
humorous
[unused876]
crowds
〜
savoy
niger
credit
following
hollywood
##7
##wal
large
leased
tense
avalanche
##ality
chimneys
monitors
candles
blamed
strategic
shocking
##asco
absent
fellows
##atics
##gut
prc
83
##ley
podcast
petals
facilitates
##cton
subscription
thailand
remastered
390
nickname
wow
influx
readily
grand
##olate
##inda
##boards
mon
1816
ants
added
inorganic
mallory
xiii
corruption
[unused770]
diabetes
infringement
vaughn
convex
blurted
##write
royalty
##у
##ich
₆
[unused554]
flora
recovered
tackle
racecourse
miner
divine
lawson
classmates
prediction
kaitlyn
##ß
artifact
unconscious
##pura
por
##ce
christ
acronym
marcel
##lham
##kura
##dell
forgetting
bombay
can
##dre
fleetwood
##filtration
partly
[unused368]
##gor
##vb
hinduism
302
##ssa
comprising
cathy
cupboard
##atable
}
thought
sudbury
powerplant
suicide
parameters
metaphor
destroys
dependence
politically
[unused618]
##ssler
seekers
tianjin
ginger
antilles
instituted
mutation
libel
1983
josh
hands
##taka
survive
highland
warehouses
##mun
##osity
##य
afc
ferguson
excerpt
abel
enjoyment
crashed
##ened
##江
##los
pursuing
##cor
synthetic
##under
santana
calculations
burma
rudolph
norte
knowles
bias
##ン
harvard
amended
cite
alright
cebu
##ffs
1893
##marine
recorded
1903
শ
holiday
prevention
pens
ء
##ud
##egorical
wheeled
announcements
ensign
outing
##tablished
distrust
ு
employed
tracked
##nberger
##ও
claw
captains
plum
ལ
deviation
invitations
##辶
grinning
berg
cinderella
ashamed
widows
halfway
arranger
##girl
availability
changing
icc
##rent
antennae
[unused715]
excuses
mane
national
##itude
derivative
racer
##aru
##bell
brazilian
seen
nuts
##lance
bounce
javanese
online
take
suit
goalkeeper
councillor
inherently
establishes
treaty
seychelles
##bourne
##hli
1742
combat
quality
tiffany
exiled
eagle
yet
148
botswana
##lty
monastic
pep
museums
ℓ
militias
##achi
advisor
portions
##tonic
##ே
kamal
##umber
կ
racist
##ergy
bulky
[unused294]
complaints
plaid
birthday
syn
descends
clay
1766
bedfordshire
observed
debra
bet
excitedly
##ctions
lose
hailed
gun
##œ
insect
ranged
mead
wrapping
##rka
legends
literacy
exciting
pantry
rome
##tana
##ry
institutions
##ilation
survival
ᅮ
bees
summarized
merry
cartoons
consort
##aby
textile
թ
apartment
diffusion
exploding
distressed
tb
rocking
tempted
geological
recognise
–
relationship
investors
confronts
analyzing
gould
mirza
luminous
substantial
yuri
creativity
signs
[unused941]
fabrics
##ft
eps
cpu
politician
lingering
pleaded
surveyor
calculating
weaponry
##sel
##tm
′
beloved
cylinder
gwen
freshwater
cerambycidae
language
virus
slash
##rum
jenkins
sacramento
##buch
migrating
##idia
accordion
resort
##inium
##খ
atv
heat
shane
buried
executed
pointing
trailed
1967
torres
m1
##ख
tide
[unused190]
##gb
rustic
wrists
[unused673]
geese
lough
##tec
##iac
outsiders
catherine
fulham
ter
guess
off
bavarian
##die
peter
tonga
concessions
pound
[unused418]
according
##gold
f1
victorious
artwork
hallmark
tracker
named
1864
##ider
augusto
tran
spectators
kristin
ted
modified
[unused77]
refugee
villages
betrayed
##shed
sheath
##urrent
export
##tv
favorites
wendell
tea
altar
spread
##ico
##flies
themselves
gunners
##mana
##立
atletico
12
oceania
slip
burial
slayer
applause
pioneer
lobby
nightstand
decorated
न
annual
discus
##bio
isis
[unused550]
counterpart
##ssing
737
य
decent
salvatore
enactment
strategically
hicks
[unused628]
ab
diana
daze
austrian
[unused789]
separating
arch
##leader
##wig
hurrying
recall
skill
rebecca
sights
##ila
##js
meng
ponytail
##dic
meters
##nel
solo
##hi
create
sheer
meaningless
##მ
lord
brewing
loft
##wi
edges
##ako
blazed
aren
inwardly
cages
bu
vietnam
operas
##ois
thai
bombers
consumption
movie
38
shove
ส
seem
crashing
##rl
molecules
[MASK]
ト
##rating
skipped
[unused67]
lease
kangaroo
notes
hopes
##furt
blended
##eves
##basket
plymouth
staffordshire
bae
bloom
affairs
offense
boosted
rodrigo
##fting
wrestler
pages
peripheral
barely
grim
smelling
##nay
tribute
stall
،
##வ
competed
titular
provence
##tlement
smashing
##itarian
heels
##culture
bully
←
hovering
francois
##ase
taken
##zier
##ones
##ami
##town
##iner
scala
adjustable
ob
##ধ
##schen
vomiting
rushes
noel
crore
##est
trump
albrecht
transmitters
sponsoring
norfolk
##eg
theoretically
subsidy
cummings
##physical
christi
lama
kit
grape
superhero
economics
skirts
##inski
barefoot
legislature
##icing
selections
[unused224]
throttle
ton
makeshift
granddaughter
##nstein
specials
sucked
allison
conferred
illustrious
##eron
feat
gottingen
doctor
son
##bley
##坂
##cion
##道
##mini
textures
domestically
joker
tangle
hence
##up
bandage
tobacco
concealed
##coming
philology
##16
resumed
pendulum
bei
overlapping
loud
diverse
rigid
damp
##nally
congregation
ornaments
vantage
yugoslavia
spear
magnolia
##bid
comparative
appointed
و
##ore
nippon
whom
mo
antarctica
vaughan
##cial
chess
verse
##cian
monastery
joking
ш
aiden
waters
marrying
expressway
directional
conjecture
vicar
interrogation
flesh
similar
##ais
rf
admiral
experiencing
addiction
₱
specialising
[unused528]
olympic
essential
curb
tamara
##hu
ץ
pounds
linear
mentally
accusing
##kti
##uno
moreover
rex
robson
1843
junction
concentrations
exited
collections
traders
diaries
senators
tugged
bounced
##tain
smile
##rge
roman
pride
bypass
##haus
cp
世
##gawa
basalt
##iya
pluto
[unused420]
##erre
kin
sleeping
impacts
follow
cinema
night
allen
bored
observers
##ர
##y
partisan
স
louvre
xml
##32
[unused210]
scare
specimens
海
captured
defended
photographers
##ι
delightful
lust
inviting
teen
##ota
##．
surge
taliban
draft
shouldered
##vino
westwood
aristocracy
jess
headquarters
##yar
granny
sends
hamlets
##rut
leaning
vomit
##ت
shandong
issue
##il
venice
chopped
1751
beers
kingsley
arriving
breakdown
foolish
solvent
##chfield
principles
counselor
spectator
mercenary
filippo
synthesis
reprise
##³
rq
phillies
¦
earthquakes
reza
weakened
##を
delegates
justices
conical
##rro
[unused302]
[unused428]
narrower
quarterfinals
brow
antoinette
相
toxicity
##iest
veins
vocalists
originated
countryside
functions
parish
drifting
##এ
distillery
pots
initials
##₂
##lden
range
##cise
postage
##dot
quebec
angle
ep
guitarist
##ouk
topographic
160
##ratic
watt
markus
whore
sorbonne
purse
toll
##明
03
baronet
sharma
##ify
below
yves
uhf
developing
sizes
involved
##tov
1820
ellie
antibiotics
gambling
nwa
##gist
elevators
whimper
##yang
##founded
nbl
canadian
regained
jade
impressions
kiel
1645
mate
judah
##ardo
lifeboat
call
roofed
underneath
nearer
muscle
tomas
##wart
disciple
hourly
ultra
pablo
her
ᴵ
hungarian
mani
ち
possibilities
gray
metacritic
damascus
[unused886]
fay
trails
phonetic
rwanda
[unused55]
fire
seat
why
general
##ite
ban
requirement
hai
degradation
##jure
punishment
##অ
##ব
thom
clare
wolf
resides
boxing
amber
##cloth
216
conan
stills
byrd
supported
slab
fading
coping
##hair
almeida
shrub
tunnels
elsewhere
##ner
##oma
analytic
industries
##rno
##nery
comforting
##rgan
domain
gustave
wylie
westbound
chewing
terminate
##ʃ
veterans
reflect
toast
##rger
nationalities
separately
psychic
##bai
spying
margins
wnba
md
fortifications
##ბ
##tory
lt
bananas
esq
谷
##ire
calvert
fountains
singing
interrupting
tractors
loss
enzyme
violently
nine
[unused502]
##ro
runway
trent
temporary
tavi
[unused937]
life
fletcher
raids
kirk
##izan
subunit
enthusiastically
[unused463]
gibson
resurrection
alarms
238
[unused864]
every
elimination
out
##sh
furiously
valves
charismatic
bt
indoors
teammates
proposal
##nda
##mbre
##島
mandate
##ima
##erus
##&
##ى
##yk
hopping
crown
counterattack
##olf
flatly
rodriguez
##0
##皇
miocene
hepatitis
[unused857]
1901
asylum
punjabi
leans
priory
remainder
1785
predicting
inaccurate
##zza
abuse
##aith
waltz
classed
jaws
1717
##rou
patio
cyclists
[unused36]
portuguese
##yed
##tila
37
##oz
##ƒ
け
##yana
vin
##won
mbe
peninsula
vertex
##mei
brutality
reinstated
saskatoon
mendes
italia
colonization
deadline
nagar
masterpiece
espionage
castes
##ux
sourced
francisco
swallowed
##aged
harris
ist
farm
spacious
##sit
व
wanted
‰
leave
1682
with
flashing
bahn
faye
demi
cannons
colleges
cody
advancing
growling
eternal
gigs
gills
breuning
blackberry
shower
morgan
bulgaria
answered
bridget
##gnon
widowed
##jian
furnished
compliance
davey
[unused308]
palmer
madly
barrie
##ragan
wrong
illustrates
⇒
satellites
acquiring
contributed
suspense
machinery
ravi
account
corporal
##hide
[unused161]
pamela
pets
政
##º
shown
夏
sms
naacp
1888
pas
cod
holster
beforehand
hermitage
listings
globalization
nautical
radiated
##uts
fingered
##del
hereford
racehorse
swapped
buster
ص
concentration
opted
##sed
cramer
highest
loyalists
trout
drive
hesitated
educating
acceptable
cocaine
thorns
major
holly
marched
arrow
hamburg
animated
xavier
[unused228]
cale
seminal
##ven
freiburg
severn
##tao
interviewed
##mc
asshole
robert
ang
##type
spectroscopy
massage
##ᅮ
[unused128]
lair
##ions
absorbed
procedures
arm
д
sadness
##村
##cked
achieving
aisle
hand
triassic
battled
12th
buyer
havre
is
bai
desperation
contrasts
translate
runaway
136
stadium
intruder
paradise
vampires
[unused824]
力
makers
livelihood
employment
hungry
variations
##ʔ
ᅭ
segregation
[unused362]
albuquerque
berkshire
jasmine
murmur
##lco
mediation
instrumental
[unused218]
greatest
53
##written
ா
##hre
capitals
gunter
dealing
address
spelling
り
denied
樹
##mament
kerry
sanity
amused
county
##rest
##ℝ
merit
##व
[unused291]
dylan
vance
shin
node
rear
##zers
awakened
pisa
chapter
possibly
restart
name
interaction
[unused870]
##ton
leigh
ɣ
drift
distributor
##bery
pub
expeditionary
manor
scream
martha
unchanged
ecology
keller
patti
freddy
1991
李
arched
mona
pakistan
saturdays
[unused230]
[unused323]
die
owner
binding
planets
##nca
1697
teaser
##heim
honours
cox
rang
reverse
goldstein
pagoda
suspects
beech
1933
stud
uh
##asurable
largely
christoph
##cote
pulpit
goethe
sponsor
##tat
fountain
alterations
##ulates
女
heroes
join
jed
harriet
converting
##mund
巿
deal
[unused666]
##urse
horrified
testing
helens
dust
%
##blood
muttered
yanking
plank
ligand
genocide
keeps
nos
910
dent
minnie
columbia
##wives
directs
inward
##mo
organization
##ath
female
##ᵍ
อ
just
[unused412]
app
尚
auxiliary
##nko
##:
seriously
keel
316
outstanding
talent
eruptions
postal
freak
bloomfield
intuitive
[unused123]
sighs
specializing
cookies
peered
accord
##გ
[unused581]
gaines
arrogant
warmer
ras
quarry
induction
transported
mcc
crusaders
ellington
centro
bandages
identity
ensuing
##sul
safer
sparkling
multiplication
sweetie
wilkinson
crisp
profit
appointment
pubs
uv
crest
[unused98]
growth
york
temperate
nomenclature
1998
##ulo
thud
maine
again
sheridan
prostitute
seduction
dancer
fir
##kan
fuse
beats
tori
##kei
##ट
tres
lb
aggregate
##yria
sediment
xii
ku
loops
engined
hardin
bomber
figures
utilization
absolute
##zquez
dfb
##lake
##rted
×
wee
##tp
smell
costello
aboriginal
##rion
walsh
tandem
lyle
hk
cuff
doe
essentially
exchanges
##dine
irritated
disastrous
kimberley
##mann
eileen
rare
##pose
1781
##umb
[unused127]
##ines
##ged
committees
tally
##dles
decomposition
franks
excessive
antonia
commissioners
discontent
anaheim
##grade
brackets
1929
##√
##ding
gazes
comprehensive
destroyers
good
karma
roses
disadvantaged
review
endeavor
focusing
##相
reservoirs
##icon
report
manufactured
spare
##erated
1799
ate
##sian
##sar
municipalities
##ٹ
materials
adopt
##lt
mystery
mapped
##dt
##aba
mariana
fielded
stumbled
sealing
harbor
grid
fk
ives
undergoes
keynes
atoll
##空
niece
ன
stems
里
busiest
nam
egan
oaks
hating
cracked
microscopy
shotgun
eds
thread
wolves
cdp
amc
##bular
mcdonald
artemis
qualifying
ɔ
evidence
awe
administrators
reeves
gay
sufficiently
tucker
officers
##tie
bruno
staggered
signage
elaborated
despite
nz
banking
fund
三
originate
seam
everyone
progressing
inappropriate
separated
[unused664]
denial
##hein
canceled
##fera
sighting
murderer
##風
gibraltar
viola
otherwise
##end
terribly
query
complex
о
known
attendees
[unused950]
reggie
##bol
playable
##ghan
##card
kanye
tipperary
etched
grover
nest
gel
stephens
hit
exit
##isance
sunderland
##cent
narrowly
gymnastics
##wski
##lent
robbery
organize
slated
unused
escort
slips
parking
rig
distinctive
deco
differences
repeatedly
dotted
rann
minnesota
notebook
ava
annexation
synonym
hydraulic
曲
lime
macdonald
slalom
cooler
268
johnnie
र
[unused145]
[unused656]
[unused721]
hi
bolt
##vance
scarred
##rrie
gymnast
sleeps
ceded
notice
developments
compare
giorgio
creatures
⺩
reed
alberto
undrafted
1780
captivity
associated
entourage
inconsistent
zhejiang
waved
charles
experiment
yield
ロ
[unused625]
puck
antics
working
terrified
connacht
regiments
ho
instructor
oddly
##cence
hiroshi
1704
louder
mythology
##nitz
##sund
successors
resting
bargain
##nee
319
fox
blues
dinners
[unused791]
1791
##'
congenital
would
ー
taft
absorbing
greatly
margarita
bus
trafficking
ware
##45
knitting
ʋ
texans
federation
suggestion
rule
jennifer
prague
campuses
distributed
ked
reelection
advisors
bats
judy
minds
marche
mistake
bliss
zagreb
magdalene
inverted
1842
salvador
occult
bestowed
##nology
sebastien
amnesty
intriguing
perrin
san
renaissance
pumping
ars
embarrassed
##士
incarcerated
division
sharpened
children
##rich
mn
iteration
void
«
repair
quoting
ₚ
##ives
postdoctoral
lasted
specifies
vista
avoid
geometric
##ych
garbage
delicate
##ntation
wrocław
valkyrie
manuscript
programs
iran
improvements
guidance
servants
ripped
##ᅭ
₊
cornerstone
nikolay
##tose
courses
esa
forbidden
persistent
##cture
kitty
replies
concert
ravine
november
tombs
[unused511]
slick
##king
dial
drilled
mic
drill
furniture
cooke
lashed
stormy
riddle
genuinely
landon
hereditary
uses
captures
raped
##rini
firth
clamped
momentarily
reel
[unused69]
basque
##ved
cobra
##anial
mutants
304
invincible
appleton
seconds
cervical
[unused631]
₩
uneasy
##zard
structures
##logram
errors
narrow
slightest
[unused8]
##gis
yourselves
richly
jeffrey
witnessed
##is
citing
fuller
##physics
filming
##work
lafayette
##kou
##oj
switch
statute
[unused738]
thirteen
##rik
##leen
outlet
promoters
##外
illustrating
西
into
tanner
##dridge
assaulted
injunction
migratory
##υ
ق
##(
₹
sunni
grenades
##ब
shave
##ographer
張
olaf
conclude
paintings
competitive
ٹ
inflation
wolfgang
ndp
##tort
ending
realize
[unused65]
##fusion
local
##antly
incapable
messing
stroked
ipa
sirius
coincidentally
hay
##ր
decks
audience
saves
kilkenny
##lide
objective
jett
denis
lehman
tanzania
maestro
reworked
##uated
croft
stubborn
##60
sahara
parental
electoral
crook
##jali
persuaded
transmissions
organizer
thereof
tanker
##dro
inspector
##เ
ය
slamming
convictions
showing
tortured
harshly
41st
realized
##iol
facilitated
##aver
##rnier
groaned
##som
shifting
paul
mrna
##cott
preference
##to
principal
rabbits
extended
[unused816]
##owe
ridiculous
silva
spices
petitioned
list
apex
confirming
armenia
accustomed
[unused620]
食
landing
senator
watering
motorcycles
345
v
む
rotherham
##த
hawks
terrorist
frail
alain
##date
mark
##trust
jay
##cchi
1805
boxed
chapel
requested
manuscripts
##mada
reference
thereby
sheriff
##uary
zebra
##iot
##wed
##ography
peking
[unused640]
jon
social
pulls
operation
##bra
balkan
leipzig
deepest
চ
space
beverley
causing
spartan
queens
キ
powder
sellers
incorporates
buckled
representatives
convoys
উ
acre
incorrect
horseback
196
lp
syndicated
offers
165
presley
ut
sustainability
insanity
ya
##vao
##usly
churchill
debate
couch
阿
##京
crushing
1977
hesitate
weekly
sami
incense
ezekiel
##pressed
slower
conflict
##iving
hendrix
broadband
bertram
quezon
aces
giant
jasper
##zin
stumble
marvin
derivatives
espana
[unused921]
slacks
manhattan
diary
ollie
discovering
##baldi
##nza
boise
appendix
isn
frank
p
bread
storm
coming
russo
28th
highness
[unused35]
[unused44]
pink
##⇒
reservations
sigh
ᆸ
##bbed
treats
minorities
bracing
##ne
##lita
##yen
proceeds
helen
transformed
chestnut
treasury
spoke
blanket
##bies
kurdistan
furrowed
[unused347]
[unused438]
modernized
[unused396]
##jal
assessments
##宗
##ars
lenin
cfl
overshadowed
koln
awaiting
apartheid
smarter
##nnis
english
recounts
republicans
adopted
##irus
attorneys
##―
measures
##and
customized
roar
productivity
spanned
suffrage
where
said
fowler
##pton
considerations
mel
ministers
harness
repetition
##llie
prussia
30
maximal
healthy
patients
imposed
negotiations
1835
tick
##cke
listing
abusive
booming
of
[unused394]
ratified
##gin
coiled
redskins
##nar
##jou
[unused807]
determining
underlying
barrister
conversation
stanisław
04
##phy
columbian
annie
calling
[unused846]
whereas
kb
theta
##isman
onto
emerged
jocelyn
extinction
##hope
##ζ
answer
prisoners
##vina
##rani
##cock
[unused617]
y
ᵣ
archaeology
tens
ն
##ised
ʾ
laptop
concourse
inc
holder
prohibition
crude
##sse
yard
##ctum
warrington
splash
##uer
##ent
hu
660
modeled
13th
##liness
6th
[unused964]
reminding
shoots
incorporation
ნ
mercury
ibrahim
enzymes
##chase
confederation
worked
##tler
maryland
fought
##mba
sits
60s
##出
05
overlooking
briefcase
salim
##│
screaming
bonnie
argument
lakers
intending
cheung
##rly
उ
##uate
desert
##yala
gaddafi
[unused433]
##dler
bladed
##uld
##ges
tides
presenters
##ust
watery
ß
department
##athlon
##vis
plots
silver
1844
104
davidson
climb
##mia
assumption
##ffa
enjoy
janice
momentary
julie
symposium
##2
vitamin
pour
##oic
controversial
##castle
policing
##ien
repay
intercept
borrowing
hummed
exchanged
attempt
searched
##hy
##μ
turkic
earls
kiara
##ction
inspectors
##lessly
##umi
kei
##ulf
##nu
environments
##rman
nba
##mi
##lat
town
##pheus
dear
mounds
clinic
1783
nonsense
##hr
triple
family
##ilis
bowling
hackney
gladys
prevented
heard
ろ
nicole
sporadic
corrugated
dickinson
##sky
[unused282]
nicholas
developers
eleventh
receives
interchange
sums
##oteric
packed
[unused884]
grenade
##ts
##patient
##ʻi
restructuring
ill
lending
putnam
amour
consult
trapped
rulers
##lva
integrating
dunn
discusses
##lge
genuine
guessed
##than
##♯
##14
spider
shoved
billion
interspersed
islands
neighbourhoods
afterlife
tubular
overlook
lass
470
few
##nant
raft
es
feel
stunned
amplitude
schleswig
convoy
pew
greeting
sainte
de
ink
operatic
vishnu
lucan
⁵
caf
tags
159
the
lens
commemorating
tenderness
bullock
ss
reputation
##icient
octave
##sell
exercise
cracking
unix
cooperate
jack
enhancing
fantastic
orb
hard
arkansas
fraudulent
widow
coward
instance
potomac
##有
##mming
drying
##erence
entirety
sounded
fatigue
losses
almighty
benches
vector
yue
kari
module
cheered
rake
adolescents
46th
##emi
other
##var
croats
##chon
kota
##able
black
journalists
scope
defining
scientists
decor
verdict
theology
aa
partisans
indo
humanitarian
marquess
##pis
288
seamen
keeping
nonstop
various
mage
processed
punt
yielding
த
web
mixture
hang
fee
139
##laya
albanians
examiner
和
roof
survives
##tty
laughing
802
called
##dur
somerset
oral
vague
filipino
derry
maximize
archived
hiring
expected
##nable
tag
addressing
warmth
league
jumps
1869
galactic
mountain
poor
##iciencies
##aurus
montreal
arches
electrified
wilkes
resemble
forbade
[unused284]
pressures
watts
[unused344]
1970s
anguish
art
deprived
embracing
envelope
##at
successor
officer
impressive
afford
describing
window
influenced
palestinian
##tead
##rs
bizarre
zhao
knife
hopeless
striking
perceive
regrets
oppressive
shorter
marching
##horse
dictated
rubbed
waited
unlike
fifteenth
leroy
include
rumors
##lak
stale
apple
liaison
brown
##ously
requires
instinctively
pegasus
shout
1605
abrams
ᴺ
[unused612]
ᆷ
scripts
ceremonies
##berger
ligue
[unused654]
zach
dramatically
श
iris
meta
liu
fail
[unused571]
noting
##ay
society
athletics
elisabeth
honorable
propelled
sprinter
cooperative
fins
ensures
railways
##ple
buddhism
##gg
extras
ding
sardinia
twist
nations
wonderland
##e
enroll
inspired
katie
ou
nobleman
##ino
lin
norway
be
##avs
1995
stanton
accessed
proposed
ensured
happened
mail
nutrients
historia
java
##eet
##cule
carnival
champagne
instability
##mony
scrambling
tends
##ator
##vity
##bel
mi
inspection
lang
##tford
small
dakota
rental
[unused360]
90
logic
third
genetically
vijay
schuster
panama
##ctuated
خ
preston
vegetables
undefeated
1862
egypt
marty
ferns
compilation
one
##ya
scrap
iowa
reasonable
steelers
grimsby
secrecy
retreating
angrily
dragon
fledgling
[unused866]
prostitution
stabilization
nerves
midi
clifton
ceiling
accommodations
abbas
traditions
ethiopia
##jing
##sc
ha
el
disclose
sagged
polymers
patricia
##ngo
##iman
##oche
massacre
##gers
delivers
##gation
breaker
##ntine
excursion
favor
wills
lake
configurations
ignorance
##ffled
block
lithium
##tangled
##rt
influential
unfortunate
infinite
hamilton
julian
godfrey
##shu
russians
##udence
burkina
andover
skipping
telecommunication
satisfactory
ample
economical
strains
migrate
yep
disneyland
pained
spiked
##vale
1975
cows
worm
love
##ג
live
charley
adopting
piled
##icles
ngo
nave
dividing
lifts
bb
[unused256]
[unused18]
boards
cave
##osing
eton
##monium
regulations
share
##テ
mischief
##iji
162
coding
hostel
burnett
520
##otic
babe
hatred
##lum
colchester
ric
##s
humphrey
imprisonment
sikh
##ᄆ
brothers
going
##escu
##rera
##building
lam
prix
commenced
219
upland
##ija
appalled
taiwan
alexis
challenged
centimetres
vertical
conserve
[unused760]
##kus
stones
##iam
bromwich
saliva
runoff
##อ
moan
sonic
allmusic
##tangle
rt
chevrolet
##李
italiana
banged
##ogist
2018
werewolves
reviewer
##হ
anglican
preceding
solid
##ille
explosive
videos
pedro
##laze
frequently
rabbit
yields
electrode
libre
medley
azores
[unused348]
藤
early
、
highly
swollen
harry
sicily
resemblance
mare
##rocity
##fication
##ₗ
sergey
prepare
##lusion
##ロ
accomplishments
hm
soul
decca
fundraiser
[unused537]
##rra
1672
292
quake
##ably
verandah
emotion
そ
disruption
stung
romeo
[unused526]
##phobic
entertain
##board
##rwood
mohammad
complement
##∈
530
residences
foothills
explorers
##ndt
kendrick
contrasting
seventies
therapeutic
relinquished
entertainer
horns
type
##rrow
##otho
defendant
##tua
pitt
runes
hailey
loudly
morals
fairfax
##firm
bianca
##uta
plume
lina
1873
electricity
##ship
tolerate
aroma
[unused261]
##wy
ah
watson
engraving
##武
##sari
afternoons
amy
##inge
disks
##ᅥ
north
widened
kw
[unused248]
##ʐ
sunset
finds
archaic
##ap
assent
fed
lucie
##iu
shaft
face
tangible
onset
ireland
teachers
##ssen
occupation
nh
wildcats
landfall
##islav
267
linked
lazy
furlongs
im
defences
##pon
keeper
belarusian
pillow
madrid
above
pace
sermons
##eme
noteworthy
##−1
opaque
acclaimed
fabric
##amina
##ml
flows
[unused309]
elevations
##ه
runways
##tya
renewal
wrestle
##itating
##uen
##,
##光
##rford
grammar
suppressed
mimi
provide
anticipated
λ
##0s
magdalena
##mona
door
trying
strategies
anchored
1769
##aking
molten
monty
conventional
##ane
college
2002
pal
traumatic
hybrids
maha
indochina
napoli
nodded
villains
##llins
##ия
emmy
##龸
knotted
race
za
quiet
objections
##lan
##nas
##ote
##ix
localities
inside
##nal
##38
##ᵐ
reciprocal
1648
stunt
athletic
appearing
ultimatum
reputed
resume
grandson
supervisory
##bm
lennox
spike
土
##yama
bs
subjective
lobe
hearst
ballistic
upgrade
mort
minister
rainy
glue
hammond
##›
outrageous
pasta
judith
confirm
beam
bursts
regeneration
tight
payload
ض
clinging
convention
##firmed
[unused272]
experimentation
augsburg
352
[unused370]
principality
newborn
recordings
bose
operative
##media
courtroom
hissed
hardcover
tangent
gone
regain
panting
2500
nominal
creating
buffalo
shamrock
examinations
shy
synod
stubble
pine
##skin
kincaid
equations
motorola
phd
##national
##van
##grass
sid
goldsmith
ivanov
safe
[unused101]
##itive
##dner
##vron
forks
##oles
##gate
unsure
afghan
##comb
fully
authorised
salsa
ⁱ
troubles
transmit
flanks
ね
poking
rude
##peed
[unused675]
##6th
leopold
太
##agi
tanaka
##pf
ف
##yan
##ische
pennsylvania
analyst
##ange
[unused11]
##hora
sailors
##ط
flemish
temperatures
legislative
saddam
succeeded
closure
##kla
1a
roosevelt
[unused457]
thatcher
collision
dash
port
appear
natives
relativity
watford
introduced
eyebrow
porsche
lent
samantha
subcontinent
ninth
##eki
##zak
stacks
ы
##ə
##an
injuring
55
included
raked
##dder
sports
106
47
##ses
tainted
[unused924]
##thy
dodge
idol
superior
localized
blazers
behind
1993
icy
grossing
##清
m³
tata
beckett
traces
oak
ak
##rao
##∨
##ggles
##holm
ャ
ottawa
count
treason
atlantis
coastline
##艹
hind
attitude
hurt
entrances
₅
mainly
victoria
##bbe
dreams
consumers
okay
1733
mustache
freely
marriott
fest
miller
dismissal
delegation
¼
salon
reagan
milky
peculiar
lesser
##typic
##stad
##ora
concerned
vowed
##dust
hook
##cht
bertrand
outpost
macarthur
##erland
mural
##base
##ropriation
idols
##rative
wonder
from
token
injury
consolation
ne
441
historians
maguire
wore
extracted
##agawa
om
##zle
##bba
anthologies
indigenous
cultures
kinds
inca
##tase
tremendous
##北
imprint
chronicle
ع
##mel
peaked
foundation
crack
privacy
italianate
##roids
##eria
behaviors
[unused169]
duluth
seton
##rick
inspiring
brest
descriptions
consultation
owl
##pina
residues
jackie
##ʾ
[unused259]
founding
mercy
mutant
sui
golden
##rize
noise
gotta
manpower
##。
##ivar
##dez
জ
dome
flyers
空
residents
##cha
##fish
barrage
[unused901]
п
looked
∇
ก
proton
attribute
rue
scandals
[unused700]
fled
globally
vein
1732
projects
faux
straps
faltered
gospels
##之
marker
homicide
[PAD]
ease
bisexual
™
barons
tributaries
cluster
young
presents
225
##fide
minutes
##rval
documented
##pathy
ecological
communal
viktor
[unused166]
accountable
team
uncovered
pontifical
##leg
regulates
lynn
lax
lacy
je
jailed
hazy
platt
37th
##€
differentiate
hadley
detailing
langdon
##uth
brewery
##wana
[unused920]
zhou
funds
ransom
concentrating
automation
parole
corporate
achievement
hebrew
raleigh
[unused251]
shoot
seater
##ru
[unused43]
[unused196]
##ounded
anson
##⟩
penetrating
ख
competition
blasted
km
hash
validity
mm
saharan
avatar
occupying
archibald
summon
##ʒ
flourished
ramsay
comrades
airport
##no
arizona
steal
##kell
gently
plotted
relic
##parts
zipper
whistle
addition
[unused862]
秀
demonstrating
sas
1972
debbie
bender
naturalized
1966
##cene
##ـ
heinrich
pensions
appreciated
flashlight
auditorium
##group
##rier
slicing
chronological
aspects
administratively
##earing
##aia
fusion
subsistence
##ante
umpire
##‘
ᅥ
tattoos
toys
david
bottom
marathi
predictable
dignitaries
beams
##д
housed
bremen
backwards
suits
##月
brewers
saxon
sinn
conclusion
##san
guillaume
marne
bargaining
geneva
##タ
abandoning
offering
brighter
goat
isbn
##25
##rgh
helped
hack
optimism
##ɲ
parts
broke
gutierrez
integration
championship
collar
punched
gee
themed
spared
##oder
prosecution
parisian
educated
console
ʑ
cigarettes
difficulty
##erly
der
##ghi
[unused414]
##ske
ensemble
##nary
demanding
annapolis
thrill
پ
assessed
decker
hamish
homage
judged
ro
devlin
##hel
fabricated
repairing
chin
flank
prescription
truce
man
##公
##ヒ
##lce
ː
##brate
##ক
visit
570
catcher
return
remaining
##₄
systems
tim
clung
stables
##є
instructions
##et
seattle
##れ
airborne
princess
resembles
site
goldberg
cochrane
##∂
[unused276]
northamptonshire
amazing
##jic
venture
buck
elsa
iraqi
##bal
[unused92]
stanford
atlas
relationships
adept
watching
breathe
##mount
something
貴
[unused421]
265
##heart
花
madman
##omic
inhibition
##58
##rons
##unds
ledger
streamlined
glowing
tolkien
[unused944]
##hul
##tos
wing
glazed
1665
##oll
chun
stigma
distinguish
depressed
ニ
林
mold
rush
arrests
mar
tons
factors
stain
harper
cain
portage
generalized
awake
##rzburg
##ors
tried
lana
[unused688]
##ony
jerseys
actor
lighthouse
##ⱼ
snoop
chaotic
止
flanagan
bengali
##han
comet
judicial
schwartz
gorman
[unused477]
##tial
icon
performing
[unused474]
nationality
kg
##tine
mbc
abbey
freeman
##火
lacked
##wash
last
##в
##shore
cheng
justification
proclamation
jeopardy
nation
layne
pressure
##ර
experts
prima
hollis
1950
##log
##mania
invoked
ventura
pathetic
az
quasi
consultants
jihad
contemporaries
quotes
fleming
lineman
schedules
parchment
squat
sant
conventions
ม
dynamite
marital
brit
##org
##rill
[unused634]
##belle
councillors
pepper
##忄
##rie
##as
nile
asbestos
len
olivier
swayed
practices
lesions
scenario
）
gaius
automatically
scoring
intercepted
vendors
##aly
polls
##riz
2010s
commando
leftist
cure
tunisia
##pop
intervened
pools
wander
alistair
colts
guise
pratt
##ต
hardly
##bas
##tify
enables
„
sheppard
explodes
wakes
paws
1638
motors
contests
couples
drinks
postwar
tha
policy
jimi
mushroom
iced
ironically
atmospheric
withdrawn
vince
quadrant
2019
##nes
##body
puff
himself
etat
longitude
1796
drastically
modifications
graves
##dock
unemployment
retrieve
dharma
spines
[unused507]
frames
frowns
arthur
absorption
sunrise
elongated
brows
herrera
##uram
##tries
monsters
[unused696]
commencing
monthly
implemented
ordained
##ible
yo
banquet
[unused496]
journey
pembroke
bars
後
rai
dried
##ep
preview
accompaniment
braking
##yde
eight
bari
render
gravitational
screams
christmas
exponential
hill
stitch
pigeon
cecilia
birmingham
[unused692]
qin
paragraph
##sas
:
stairway
##oat
##ancy
##dalen
illustrations
braden
waits
upgrading
wurttemberg
新
##poo
##tch
salad
р
wcw
##umble
knox
fixing
ruined
flare
compartment
motionless
oracle
iss
ლ
##sters
##mot
superseded
ingredient
reptiles
compute
mats
buffet
optimistic
phrases
cottage
nick
pod
overseas
##itation
peasant
sweeney
biceps
genealogy
##gie
ying
turner
।
encyclopedia
##nik
cosmetics
spec
mls
concentrated
archdeacon
geoffrey
cancer
dyke
dorothea
ike
司
fifth
kashmir
soc
bullets
##aling
##ocytes
dorian
morocco
progress
billy
atom
##ツ
correspondence
##buck
ethernet
substance
disturb
plus
=
blink
glittering
bypassed
billboard
speeding
##jord
##lino
dallas
##aq
prominence
board
##sbury
recurring
aim
##erry
[unused195]
brake
lovely
makes
sandy
##isha
##elo
lunar
sabre
downfall
additions
blanche
tokugawa
##uder
##vern
mississippi
ј
approved
hideous
daring
guthrie
##folk
kings
sm
slate
sundance
conqueror
brother
##ene
asserts
1922
##mies
customer
ₑ
##chu
[unused993]
arrays
church
after
cornell
attracted
kapoor
[unused645]
goodness
violins
06
brittany
sustaining
岡
##镇
loosely
routinely
##27
##omp
thriller
pull
terrible
penetrated
##ggs
paved
wrestled
wheeler
religions
radiant
138
cyrillic
<
indirectly
stronger
essendon
au
celia
##⟨
##dana
desktop
stool
paused
barker
paid
barked
clube
cantata
scar
[unused200]
netting
##rasia
##lana
touring
sock
therapist
##千
extinct
bison
legions
montgomery
[unused848]
incredible
saving
horrific
claire
bookstore
united
hug
journal
chests
blond
rufus
emitted
rods
inlet
##onda
[unused88]
atheist
marriage
misleading
compiled
##rit
lavender
claremont
##ways
stocked
101
##erine
academy
##wice
authority
##rians
⅔
##ask
##前
[unused811]
1841
##bla
[unused191]
demonstrate
fair
jaya
fluids
pancakes
##poulos
pinched
nepali
##unes
seine
masks
textbook
singleton
contemplating
lobes
##hl
apartments
##ators
oro
70th
sitcom
bowie
corrections
unmarried
11
derek
gershwin
soda
##ili
willard
albums
##analysis
gdp
##otti
etienne
featuring
pang
##vn
[unused991]
1641
greyish
occurs
##gpur
gathers
ᄀ
tears
rebirth
##havan
astronomy
orleans
blur
dangling
##サ
barn
portray
increased
[unused489]
194
swift
##mos
##eft
reserved
sera
fridays
##gil
##lla
antonio
shoes
cruises
plainly
giuseppe
achieved
donor
chained
conceived
responsible
##rave
changes
winters
marshes
##ds
roller
##holders
##valent
involvement
proudly
bodo
min
[unused987]
peppers
und
highs
sacred
stiffly
plenty
henley
failures
マ
knob
##eti
1651
occasion
0
corbett
formidable
maru
angel
perch
colonel
princeton
ى
bafta
crimea
gracie
fergus
climbed
researches
unacceptable
scramble
purposely
geography
defiance
tampa
##glia
glen
flexibility
continuum
apocalyptic
##iger
patriot
प
mosques
appearance
nordic
sorcerer
fin
spain
nike
roughly
stock
dempsey
ᆯ
telephone
unbroken
##rley
[unused45]
screenplay
kgb
basal
##н
physiology
##pper
##ђ
brakes
farmer
horned
factual
##uck
##zcz
##fly
tau
characters
hardwood
##yme
moore
baby
##lon
phantom
andres
1758
brushes
##re
[unused835]
comes
300
[unused91]
mclaughlin
15th
,
microsoft
croatia
##mler
aperture
release
groundbreaking
gallons
brussels
downstairs
##zz
complied
##tula
sharks
translations
savanna
dynamics
claws
viaduct
improvised
bureaucracy
tradition
maker
[unused366]
stationed
##av
depended
jammu
##lidae
pro
##ih
##ང
damned
hierarchy
plantations
[unused80]
仮
##uid
warring
before
##ect
[unused326]
trevor
##kata
commissioning
cautious
compensate
##真
newcastle
entrance
mixing
##xie
wool
air
sar
[unused193]
weekdays
##redo
##բ
prove
intro
hubbard
super
nicaragua
jew
timely
##র
testosterone
thrusting
sirens
southwest
avalon
methods
##ford
mandatory
viet
56th
accordance
petty
dickson
suppliers
##erian
occupants
sudanese
##eve
evan
memorial
1800s
##bt
vi
##nt
##meric
arguably
toss
gb
connie
##orum
ruler
##shot
supremacy
facility
disappointing
structure
impression
bwv
magnificent
downwards
allowed
plays
cuffs
bismarck
wasted
[unused882]
##scent
afraid
[unused451]
canyon
edouard
##rosis
reasoned
republished
##kushima
palms
chaplain
lawn
criterion
ministry
ever
shuffling
handbook
takeover
moreno
brisbane
laughter
benny
airfields
##rring
practitioner
spade
librarian
millie
counters
adoption
similarly
captained
##camp
agrees
##esis
gust
deported
kraft
responses
clerical
reiterated
despair
titles
chiba
s
ottomans
highlighted
##ז
ensuring
pentagon
agencies
worthless
[unused71]
256
[unused776]
2007
##mates
inadvertently
collateral
turnpike
renewed
handing
jurist
flooding
biology
scholarly
default
##ero
norse
huffington
clicks
##brush
frederic
kramer
##平
##ended
paper
##vent
rockies
fernando
##ungen
1905
liking
##weight
dustin
##ei
ス
ᅯ
bulls
bodies
##walker
##rk
1850s
jobs
[unused104]
##km
##au
banker
##stov
lance
weaver
disturbance
simulator
shareholders
overhead
shares
emil
prostate
journalist
rhode
recipe
##ي
##jit
william
drummond
##andra
##½
dude
whites
served
charted
apparatus
driving
conscription
##rna
irene
louise
heights
concepts
striped
sheen
##metry
angeles
traditional
[unused713]
treatment
bollywood
rodgers
spice
million
soloist
lizards
beaver
dread
vertices
##nin
beginnings
hms
faber
##ふ
ᵘ
boarded
trips
headed
ø
cambodian
procedural
automotive
##♥
tactics
quinlan
improving
thomas
vase
durban
oldest
complain
latham
poses
##ppet
affinity
##xia
filters
flee
corridor
neatly
presentation
constant
##⽥
forsyth
boar
ballast
jen
##間
cleavage
result
spray
listeners
rift
resisting
potter
discretion
foreman
adversary
##hiff
operator
swept
[unused929]
safari
ballroom
mmm
denominations
##going
depend
fridge
##寺
corinne
curses
reportedly
[unused460]
##une
cd
gertrude
proposing
marries
materialized
trance
9
[unused26]
virginity
enveloped
fly
scientist
ハ
##dy
gameplay
upscale
##ome
goats
giggle
shortages
evacuated
decree
laser
suburbs
##彳
rebuild
##holes
mw
being
[unused627]
dipped
##ement
]
166
eras
martini
##enstein
[unused299]
scout
[unused676]
##rage
dominates
moran
##ush
growing
executions
huge
estadio
overdose
midlands
tribunal
legendary
evenly
incoming
slippery
stuttgart
quarterly
moscow
clearer
[unused743]
proto
##ject
grasses
cyclic
1915
friends
unknown
socket
louie
[unused599]
crossings
##mare
safeguard
metal
siegfried
libertadores
liberties
bishop
messages
sliding
byron
needles
rave
healthcare
[unused266]
hogan
##ア
blair
coaster
dilemma
nfc
sam
miniseries
##ge
tumbling
##edge
extinguished
[unused222]
celestial
test
diplomat
relied
transmission
tailor
rot
barrio
scary
landmark
dough
phil
diseases
arsenal
counseling
advise
maintain
amongst
referring
insert
##heimer
periodicals
greenland
intersections
spearheaded
##alia
biodiversity
ж
##qui
fright
[unused525]
pitch
ag
words
lilly
meanings
##laid
##ahu
##lates
thinkers
yearbook
##anian
1612
cpc
titanic
lev
locomotive
restraints
##hua
amusement
pretending
##chel
skull
ponds
pear
prison
ড
##ination
confusing
luis
##ل
baptist
##enburg
directive
blossom
commotion
##ล
ultrasound
rubber
stove
282
glee
##hesion
meets
hooves
pursue
gunn
pg
crushed
protecting
wyatt
##ᆫ
eclectic
home
##ulate
banana
blogs
158
ported
pharmacy
warnings
biomedical
saigon
roofs
dew
##劉
meteor
acting
leagues
saudi
davis
architect
automatic
tract
glint
selfish
bungalow
total
##inga
safely
actors
hopper
periodically
seal
persist
emphasizes
personally
knew
bridge
inch
gradual
[unused285]
##oting
##ax
clint
elves
190
65
privileges
giacomo
lurched
classics
sous
##ologies
sat
##ruck
leah
vents
kyushu
claudius
##ian
(
te
resisted
joanne
offenses
##strel
maxim
hui
##eville
sailing
coincidence
##ե
researcher
hart
tory
welfare
friendly
indianapolis
cowboy
intensified
intense
assistants
##islaus
piercing
##oom
carved
intervening
telescopes
dalai
drone
respond
publicized
##ache
manufacturer
newest
90s
riverside
panic
##r
stature
##cuit
glamour
eddy
probation
tables
lebanon
foods
mika
forge
##rand
surveys
acknowledging
wet
unity
trainer
provider
1851
valued
tumble
mother
bonuses
pond
##din
##iss
yu
workshop
cheat
traditionally
[unused469]
speed
idaho
slits
snatched
spotlight
designations
alison
284
exhaustion
[unused570]
cunning
therapy
##ag
piano
，
311
fares
##very
colby
ins
var
##abad
jet
chips
pins
ং
registered
##fa
narrowed
##ła
manson
colors
##宇
borders
armory
##は
tying
##bone
confidently
##食
##don
nun
##ी
nightfall
##28
##kowski
suicidal
##ested
ensure
##yd
till
undo
neighborhood
succeeding
##main
fear
317
millennium
##emy
ambrose
restaurants
##侍
[unused408]
concluded
guangzhou
describe
##sworth
inspected
sexually
distinguishes
faerie
##lander
sand
conjunction
cigarette
hunched
vehicles
placing
inn
fig
fragrance
火
avoiding
honestly
networks
##borough
ride
##lies
indexed
ignition
roberto
clinched
[unused932]
sharply
speakers
##nate
##raz
logged
##代
42
##vating
securely
cartoonist
specify
cores
##ম
ka
la
renegade
celeste
1618
##18
usl
eastern
[unused106]
fis
yang
install
lung
paddington
##sitor
##rek
radiating
beyond
fog
summers
expresses
##nais
rae
chromosome
johnston
##ily
paths
09
quarters
barrel
rise
appropriations
ո
cha
hoping
##tituted
র
organic
##neuve
[unused354]
torque
##xed
vowels
##ridge
nouns
presidential
dimly
footballers
reflection
whistled
broadcasts
sears
1711
frame
##erty
##may
##מ
transforming
1874
bernard
midnight
grammatical
yorker
karl
advances
mode
permitting
cesare
museo
smallest
↓
1834
##ctric
##rgos
khalid
tucson
singh
lightly
##riety
130
sneered
carla
netball
islamic
farther
brace
wrenched
benito
[unused850]
worried
262
bordeaux
mp
thousand
donovan
1765
ʒ
[unused135]
assam
guyana
fascism
rouen
##13
mumbled
verlag
ה
[unused25]
cheer
mechanisms
##nard
nearing
legislatures
captive
wan
performer
destroy
konstantin
stalks
candy
##kot
batted
anomaly
miserable
##ods
metaphysical
##vor
perth
unsuccessfully
seasonal
412
sites
knit
39
ร
##iso
arsenic
modules
australians
opinions
garlic
##edly
##chrome
eccentric
1708
bing
mute
##nent
205
charters
##neil
bundles
kato
二
##ena
accordingly
santa
wellington
mayer
struggles
witchcraft
ritter
adriatic
lobster
passes
ᅪ
redundant
discount
##usia
##phone
azerbaijani
supplements
reminiscent
[unused93]
770
##nick
cursed
wei
1725
##ifying
##nai
listed
else
plaque
courtyard
##rd
##ston
tidal
scale
sorority
likes
[unused594]
smith
unpublished
undermine
kitchens
[unused695]
dundee
20th
breakfast
smacked
kade
lan
moods
usc
gather
##gc
winthrop
pinnacle
cc
harmonic
turing
pain
##onic
brunette
undeveloped
##hir
##alo
infections
##olis
1898
##uation
discover
^
unnatural
heated
mating
miners
spends
barak
government
##quitable
##isse
236
##anta
##ythe
restroom
office
transverse
書
lectured
extensive
⁷
pie
1689
airline
merchandise
springs
patronage
remarked
torment
interested
honest
complications
obliged
গ
householder
weekends
grinding
154
creole
allocated
cdc
##rret
ceremony
##en
raced
promoting
auguste
##bad
concrete
precise
shitty
meath
regency
estimation
some
inducing
orgasm
soap
##и
flint
bike
cleaning
rainbow
choirs
##reate
theologian
##ylus
ebony
oxidation
distinguishing
eaton
##elt
[unused892]
doom
graeme
mile
organizations
memo
soaked
deed
##tered
screenwriter
positions
##mah
jubilee
sulfur
##etano
##ᴵ
clip
##flower
##care
##lets
sans
shropshire
present
craven
##م
御
francesca
##vel
calculate
sheets
huskies
forcing
fines
swan
ς
preventing
frog
inevitably
honoring
outnumbered
sy
¬
classmate
18th
##vered
##ther
medal
burn
filmed
##recht
に
oceanic
##onzo
##rp
microwave
pitchers
rodeo
scowled
[unused985]
##元
cyrus
##romatic
deportation
milano
josie
acceptance
fighting
[unused674]
supplier
depict
##phones
##3
cleveland
##ifiers
不
spoken
##sey
hardware
##ology
ν
indication
tablets
siren
##dion
interface
includes
events
willingness
tiny
residue
##mu
nokia
connecticut
characteristics
rockets
ed
dumb
maddox
career
vulgar
tend
coveted
hindi
χ
aka
##ntal
terminus
taunton
statistics
##owa
##∇
griffin
cousin
jenny
flags
resolved
winds
adelaide
degrees
jam
vocational
dewey
coordination
木
memorable
[unused316]
gaping
tender
firing
##tama
##hold
stop
presidency
ے
nigeria
vile
##nsen
charged
meyrick
fry
produces
darkened
encourage
possessed
vt
affirmative
thistle
##sts
hung
moons
fulbright
103
towering
mistress
assess
backyard
happening
motorized
limitations
##loh
##lun
decimal
chefs
mysteriously
aztec
##ӏ
participant
seeks
futuristic
monkeys
##wick
ウ
lyons
renowned
coefficient
evolving
##rney
##biology
epa
##masters
##glers
##eno
blurred
surrounds
musica
segment
company
mps
sable
##roud
community
##uo
fluttered
hon
bowler
mated
##hunter
70
##chment
spp
cochran
lean
clover
[unused151]
q
clothing
raf
##mont
engraved
conditioned
ر
potion
curriculum
body
ankles
ₖ
guinness
##cis
postmaster
andes
ferries
loch
gundam
probability
damages
beacon
daniela
voters
nevertheless
##ville
##table
##lund
cerro
bumper
cone
[unused809]
rode
accent
saved
blame
luther
monterrey
##)
ר
八
##puram
azure
pertaining
steiner
121
##color
##ᅯ
both
logging
considers
stamped
##lm
##mani
durable
lured
##trics
##bird
gave
admissions
dwellings
341
lowe
construct
tay
trio
antoine
theorem
##nts
spectacle
tap
overall
freight
##nat
barns
357
creator
launch
laurence
##hly
sweater
prize
bates
remove
curly
##bound
complexion
sinclair
burger
181
sonora
[unused50]
bent
celebrate
haunted
removes
wives
lecturer
substantially
swansea
nak
##rank
##dant
108
ducked
restoration
months
attacks
ambushed
feather
bratislava
##rba
isle
ideology
infused
pieces
garrett
nodes
litre
upbringing
alessandro
scribe
adored
publicity
mountains
robot
definitions
for
##odes
gibbons
nicholson
twists
scrapped
dignity
plaza
reduce
recruits
hue
##pio
closes
biennale
[unused39]
contains
mess
##pie
##rus
tufts
countered
macon
##秋
240
melodic
∈
revive
steppe
jumped
raining
stairwell
equator
worse
starr
intelligent
mediterranean
rutherford
brock
touching
revision
don
##lellan
74
helicopter
כ
##pired
knowledge
sheila
manipulate
televised
stood
peeling
[unused82]
stalk
##義
sadie
bounds
arrive
cryptic
##bly
##eth
##rnet
##エ
felony
##sko
representation
avid
##rama
##₱
roanoke
cases
##well
deacon
cheating
stimulated
##graphs
subdistrict
squash
##lewood
furthermore
dimensional
coached
valid
supplement
whitehead
tale
suffering
disposed
orthodoxy
enlightenment
thief
##պ
missed
triumphant
##lowe
exercised
##tur
habsburg
affirmed
replace
##lli
##ini
##ibe
plucked
padres
##iens
##ece
seems
main
cas
find
injected
##、
slit
assembled
tri
ashe
disney
mukherjee
donation
frenzy
pounder
arden
jalan
apart
[unused783]
travel
livestock
pulse
##anza
away
dependent
##lands
relying
maori
expect
kicked
nationally
mack
threat
synonymous
ga
viscount
##ひ
limbs
##vie
##⁺
##mage
motto
##ん
guru
low
unrelated
[unused243]
arranged
[unused255]
braced
philosophical
##berry
deck
##tively
##guide
pitcher
evolve
##enes
kay
placement
prequel
femme
squinting
harmful
##hosis
alike
greg
excavations
applicants
menace
[unused279]
[unused587]
cameo
##ander
feelings
hairs
1876
disrupt
##fighting
union
railing
tossing
introduce
purchasing
##gens
sick
།
och
ᅳ
genealogical
brushing
disciples
hunted
宀
coinage
antagonist
careless
reapers
ɐ
##bek
offended
covent
political
lanka
##tist
stabilized
§
came
rama
plot
##dee
phone
##li
fueled
lankan
harmonica
capsule
luce
stimulating
##ror
branched
inquired
communists
csi
skate
albanian
strengthened
kata
leyte
##rization
##rrell
wade
typing
ₕ
kind
preceded
dina
thrilling
trembling
choosing
prevalence
mastered
minor
qing
aberdeen
bro
emory
daphne
longest
வ
carefully
sinking
mala
##ᅦ
truman
##∪
jones
出
boy
ა
enrico
lantern
eagles
sympathetic
525
##xa
gaze
##ali
mora
##eum
batch
##43
##כ
##laus
alberta
sediments
connell
shredded
repealed
naming
##edance
bi
salesman
##kt
intends
##bara
[unused357]
favourable
435
interrupt
cot
evie
##rdon
##zbek
xx
undertake
##ا
schooner
purposes
mackenzie
somebody
disposal
sigma
##inen
believed
beth
fluorescent
##thi
urgency
##field
traits
pious
ncaa
場
同
hopkins
basilica
##ignment
ami
1886
golf
membership
tre
paint
##家
##enna
[unused157]
economist
burned
##aga
grayson
anchorage
aires
echoed
bern
filthy
##resh
amounted
readers
lie
cromwell
kimball
andrey
[unused410]
caleb
blanca
[unused602]
feathers
##idge
##tic
terry
nutrient
##lvis
specializes
[unused307]
vibrations
disdain
riders
purple
talented
##giri
guards
peugeot
mu
detainees
darkening
tidy
malabar
internacional
hugh
try
[unused540]
wu
automated
##ude
##谷
pizza
historical
bind
##sus
52nd
bilateral
orchards
##maid
axis
idea
defender
panzer
aqua
select
craft
hale
sample
gazed
fascinated
sipped
felt
argentine
mandy
##trum
formerly
las
budget
repeated
rancho
[CLS]
##英
stages
ceased
##zzo
illicit
nk
fortress
##orne
natalie
betting
liszt
252
##社
baker
ᄅ
demands
initiate
[unused379]
##vable
expulsion
courier
roach
yoon
grabbed
cry
##eral
##rn
tiled
smash
choices
exposition
overgrown
##vers
dragoons
simon
moe
whaling
curtis
##hp
persuade
##venor
evidenced
社
##igo
butch
satin
##eka
shreveport
former
x
burgundy
##pa
govern
initiating
celtics
subsidiary
##thermal
favourite
clubs
kan
[unused246]
##sily
dimensions
diving
##inal
##tsk
armchair
##龍
##shin
bulldogs
delle
modifying
clicked
feature
juan
##ehan
advanced
aragon
steele
1730
recoil
eventually
panel
1735
clerk
##ants
gripping
##ξ
##imeters
brenda
##illo
?
[unused133]
##ias
sesame
[unused858]
[unused31]
synth
##etic
mirrored
descriptive
[unused616]
tension
accountability
norma
dairy
tenth
bangalore
##aha
1653
facade
slavery
communes
vary
qaeda
##olar
benedictine
pontiac
downward
##rdo
signature
##⁰
ே
##enay
sc
##ight
upheld
##iting
executives
uniting
greyhound
impressed
##cated
empowerment
redesign
juliet
monica
##shima
52
predecessor
[unused136]
invisible
jae
grey
##books
brazil
migration
austro
##bana
tempo
frequency
emptied
argues
##otted
##ease
guido
##int
##late
jude
subgenus
mechanically
##ত
midwest
##pies
##ience
##ice
daggers
sharon
bao
appeals
strokes
percentage
mundane
blades
##dae
scully
demonstrations
swimming
leonard
peaceful
visions
##elled
tenderly
americas
##dicated
ky
philharmonic
disappeared
gaston
128
examples
##kie
catalyst
##ah
皇
breakout
only
circuits
deep
nudged
morphology
monsieur
region
ᵥ
carmen
scooped
##kulam
breathing
yugoslav
vocals
oswald
parry
pair
pussy
caliphate
petrol
tabitha
н
chopin
wen
hello
committing
paints
graph
vila
##arte
pilasters
biplane
漢
darlington
[unused845]
variable
manufacture
clearance
##made
pi
luke
daemon
kilometers
monaco
nude
salle
##swell
[unused152]
passing
regulators
interior
sprint
##igan
##ello
##ndi
v6
u2
vida
mercer
blankets
hawaiian
fiercely
jurisprudence
endangered
hiv
##sser
silas
caspian
siemens
[unused761]
accomplish
[unused895]
integrated
beta
cretaceous
younger
uneven
##fied
##！
serb
eroded
slipping
australia
blasting
##}
cleared
concurrency
george
##bber
dove
artillery
important
##head
memorabilia
preserves
fate
orbit
##nte
hubert
instincts
16
brett
nope
ᄆ
finely
##定
[unused795]
riga
##ags
##ₒ
blood
bermuda
epidemic
##loading
abd
pmid
everywhere
bare
finals
connector
routed
fists
begged
smooth
rubbish
byrne
##pone
excuse
germain
rated
masses
motel
##uz
##con
assistant
restoring
##ication
designate
association
havoc
raja
inspiration
covenant
biographies
wichita
arab
stokes
tunis
##economic
secure
hermann
##quel
##wheel
relaunched
leith
sue
financed
mirrors
groceries
kilometer
shadowy
##ł
adamant
killers
whoever
lizard
[unused154]
[unused171]
pu
##宮
thoroughbred
##oton
##ioned
kettle
[unused719]
longing
ewing
spawned
sung
survey
annoyance
juvenile
bf
hearted
ely
亻
objection
wanderers
mata
##anga
##53
blew
##པ
[unused340]
##wer
##wang
ke
##holder
mighty
advertised
##德
apparel
practicing
characterized
munitions
insulin
composure
burundi
[unused42]
dwight
initial
bono
chung
##－
hurricanes
[unused543]
オ
380
334
taipei
fools
beijing
quantities
childless
hampstead
[unused579]
dusseldorf
pill
##lto
leasing
leonid
254
##cera
##rting
##atin
internationals
bull
fang
requiring
straightened
prefix
settlers
inverness
encore
戸
##gra
busch
asphalt
temperance
spill
seoul
revolutionaries
##mus
192
indians
[unused792]
subjects
129
boyfriend
dropping
nomination
astro
fleeting
##kovich
user
[unused58]
##erin
cup
masked
dvd
##ィ
commons
##ker
manage
octopus
manipulated
1989
kill
99
outdoors
[unused506]
racing
confidence
##used
prominently
##nikov
foraging
marylebone
detail
##via
##cot
##coll
hawke
nervous
aeronautical
[unused546]
gala
balance
tub
species
hurry
seals
study
northeast
solomon
almond
##bation
companion
consulted
primetime
kirby
intervene
##ø
suzuki
bis
accession
explorer
zion
brady
г
fiber
skaters
laugh
civic
[unused891]
##sia
membranes
[unused293]
success
kochi
flour
##wara
gilmore
question
cannot
##gizing
departing
commitment
xv
strongly
grinned
##zhou
忄
ramp
ذ
academic
。
xbox
##rist
spin
casket
cinematic
recorder
productions
forgive
middlesex
##cation
##糹
patty
liege
eugene
##中
93
environmental
restored
440
##urity
sentenced
dresden
ج
socrates
graphs
faces
##ᵘ
newer
dem
fool
authors
hays
pedestrians
1664
knocking
encourages
features
dryly
berkeley
dunes
prisoner
[unused287]
##piration
shortstop
industrial
commercially
armor
1789
bursting
cough
##suka
personality
82
reds
rings
tailed
brewster
##ropolis
##rson
##endra
pomeranian
wooded
##め
##eed
scrolling
triad
132
fifty
limb
feb
[unused960]
cornice
licenses
superiors
terri
razor
##rise
skilled
249
intersection
compliant
terraces
rightful
transferring
picked
##uous
##boarding
kindness
เ
musicals
##stein
infrared
luciano
##his
hazel
##writing
april
[unused650]
shoulders
luxurious
brooke
disagreements
vera
##keepers
violence
fated
##aldo
specimen
decoration
##ulata
plead
ropes
##yna
unsafe
seeded
##ᵣ
thrusts
##orio
stinging
##ers
mri
backgrounds
hoffman
lieutenant
grandfather
hacking
precedence
gateway
whitley
campus
ps
observe
haste
##gen
amounts
mob
advertising
ron
##val
##dong
liner
discoveries
##dden
unpaid
##lins
luc
vivian
kc
brody
##ility
marcelo
artificial
島
sleeper
tribe
soup
[unused787]
aluminum
besieged
sell
nostrils
dario
powerful
ھ
me
lunatic
screwing
diffuse
wwe
relating
sadly
gown
killings
psyche
nebraska
barges
olympian
drum
##llah
armies
determines
extracts
overly
aforementioned
nedra
zurich
financing
popcorn
gerry
scheduled
##region
aground
abe
quran
ramsey
##ves
bacon
newsweek
chassis
clicking
sir
sands
composed
positive
zane
silently
filter
##ott
technology
carvings
272
blah
jase
##cats
wyoming
##cious
central
ᆫ
##rina
pandora
mathematics
paces
##ड
##eger
sphere
##un
buckinghamshire
erie
motif
scarce
magnum
feast
1000
flat
rob
م
twentieth
##fy
vulnerability
[unused804]
##fighter
divinity
##福
aldo
bore
ᄐ
ণ
##och
accepts
privy
francs
menon
requiem
[unused40]
couple
paperwork
joked
including
informally
forcibly
remixed
beak
bal
ari
enthusiast
relieved
chain
reconcile
rodents
opportunity
persons
brief
seize
closed
quiz
orbital
##crest
dickens
peeked
manifold
poland
##di
##♣
fake
reopened
##nni
##ffin
harold
crossover
peacefully
directors
##bby
tire
##po
merchants
informed
midway
destroyer
##ood
##verted
separation
galilee
extending
notoriety
##昭
shells
gossip
gifford
##।
ruining
ruse
consequences
1877
smackdown
streetcar
asking
strange
lucifer
##giving
##nged
##optera
refugees
marxism
branching
outsider
ex
repairs
1750
violet
alvin
alternately
electron
montrose
##owing
aubrey
##ogan
obesity
damon
mountainous
189
trinity
##sur
lgbt
1086
surveying
suspicious
personalities
##64
gallant
taxi
stabbed
squirrels
endure
##ˡ
berber
eleanor
weakening
glistening
encircled
lined
latvian
consists
jimmie
##zuka
[unused952]
downtown
trap
##গ
##フ
unions
##ъ
[unused225]
methane
##slin
glitter
##ᆷ
billing
zulu
measure
crewe
superman
sanchez
thicker
bayer
##ato
spores
coli
ci
equatorial
woodward
unbeaten
512
translit
headquartered
[unused744]
seminole
wayne
webb
rat
denying
unopposed
1685
##thus
graz
occupational
sorting
##ink
refined
##ient
correct
imposing
reproduce
ribbons
##not
contact
immigration
part
corridors
superhuman
paternal
kidney
happiness
##outs
clench
governing
reproductive
coins
diversion
##most
dismay
baba
##icle
mcmahon
prevalent
thoughtfully
polytechnic
##wei
lay
ir
camouflage
heron
vickers
biennial
##幸
warped
fortification
illegal
spilled
domesday
compression
tuberculosis
##gren
brandy
charities
hides
sulawesi
##ports
donkey
magnetic
##ostal
1774
vittorio
##吉
synagogue
sit
diamond
french
##aca
approximately
conceptual
[unused592]
##can
[unused355]
sanjay
india
##isches
cantor
bears
patience
sonar
410
shelf
slightly
##kk
##tang
##man
ninja
##acious
cho
fauna
ب
##ddle
recapture
neo
stanley
conquer
richards
straightforward
volleyball
palo
grass
able
##cer
##zog
unaware
ʸ
grapes
hassan
1721
wealthiest
remarkable
abandonment
##sack
planting
forget
impromptu
paige
rifles
chase
slashed
petitions
woody
[unused759]
●
substituted
ी
uci
lux
##crow
clouded
reflecting
bear
erected
ք
doctoral
##yon
モ
surreal
waking
shop
lure
phase
erased
norton
directing
17
##ures
now
kneeling
fashion
230
ingrid
lasers
decreed
miracles
returning
ӏ
financial
wilkins
defeats
chapman
giles
frontman
##er
randomly
gambia
beliefs
fresh
cycling
fooled
##ion
determine
##slow
##berries
depleted
##ning
outcomes
##des
##eil
deadly
descent
##ა
curse
slung
chew
fashionable
paced
##ae
germans
##erman
chorale
researching
bushes
sting
advises
certainty
unfolded
spirit
nara
otto
waiter
[unused881]
easily
classified
sultan
fiona
bacterial
1715
lillian
##vah
##writer
##hey
##4th
gloria
complained
sri
flag
##birds
divert
services
origins
montane
mcdonnell
silky
quakers
labs
inhaled
mer
##dman
collecting
##rgy
decline
saratoga
##三
artefacts
[unused137]
fm
soldier
spotted
語
[unused545]
teenager
dagger
solutions
spawn
highlight
aramaic
missouri
##田
tuck
##sling
[unused23]
guillermo
##sport
##♠
nickel
parenting
implies
[unused445]
secretive
brain
loving
planning
avery
sacrifices
grocery
automobiles
victims
rampant
gnu
landau
coffin
leningrad
anime
1610
##christ
##₇
##pers
doo
leopard
unavailable
consecutive
liberals
presumed
stamp
gloom
graffiti
##grant
unit
##pass
scaled
vaccines
weapon
lee
stevie
avenues
yong
##ffed
422
##ﬁ
[unused343]
pena
32nd
proving
ska
sweet
loyalty
termed
thessaloniki
propagation
dazed
bitch
receptors
markings
biochemistry
fl
mari
##isi
dance
peer
[unused89]
luz
leveled
##mal
nantes
lowered
katz
huh
##yl
wilton
tan
lonely
muir
kazakh
fulfillment
plata
demanded
##ered
declaring
##nesia
smyth
##now
bridgeport
710
everton
accepted
##tyn
thor
knight
sausage
protocols
##ices
vows
badminton
zoo
revolutionary
incorporate
sorts
habitat
overtime
casimir
mana
managers
kn
aisles
lullaby
regardless
belgrade
gael
circumstance
darmstadt
paler
protested
labrador
harmony
homogeneous
##rran
##uf
ɕ
opposition
installed
##yuan
eels
gnome
drains
[unused517]
customers
princes
##amen
42nd
assistance
frequented
tenants
##unas
drama
theft
knighted
phylogenetic
extract
ata
shiny
caribbean
sore
reid
yi
⁺
##lberg
fatima
ripple
ones
[unused669]
lines
algorithms
texture
ce
381
##ニ
##tion
hampton
stefan
thomson
internet
##林
sucks
halloween
##hid
blasts
##lmer
##agne
relational
##git
apollo
dr
munoz
##on
banned
edmund
formula
c1
servers
##iensis
gathered
disc
jurisdiction
tallinn
parana
##च
novo
##zi
##手
ල
displayed
creates
1300
aleksandr
calculus
notwithstanding
##cta
stress
creepy
isabella
এ
newbury
pronouns
##uously
##´s
becomes
##uity
triggered
dimitri
villiers
reliability
eighteenth
surgeon
ourselves
##meister
##bles
spur
quantitative
fires
moose
england
wb
##lang
cakes
domes
accusation
##race
##hor
istanbul
##都
##rca
##ध
factory
centennial
lauded
arabian
anybody
forbid
isla
seized
taut
##高
##athi
前
ᵐ
houses
it
background
##fell
jenks
μ
uttered
drafting
exclaimed
[unused119]
refusal
guangdong
hurling
forward
[unused278]
origin
merrill
shivering
rutland
##liner
[unused522]
joins
##dorff
1935
lyricist
deaths
nominees
boxers
grove
201
girlfriend
static
##athic
##ous
inactivated
wong
##oked
strength
colder
ongoing
##gee
##nsed
[unused48]
##lee
document
##hal
fortunate
villa
grasping
supportive
##hai
cords
erika
africa
##nb
arterial
##⇄
strategy
##rell
penn
[unused434]
##uses
rb
疒
grade
glow
booking
##hd
booster
breach
agony
lilith
causal
southbound
ganga
composer
202
contributing
attacking
rebounds
braid
ல
3rd
whatsoever
squinted
normal
ə
shipments
##dna
palestine
wal
##mere
distributors
labeled
mfa
##β
hired
##db
[unused573]
retro
bled
##uting
美
dedicated
trunk
generous
terre
##sm
##¢
locus
##100
##oft
##η
provocative
##tting
touch
##clave
ᵉ
reelected
exemplary
moonlight
##bson
1726
abolished
high
silent
184
freeing
silly
##asian
##евич
please
announced
depiction
slovene
path
annually
chris
invasive
myspace
satellite
henson
##kshi
holmes
physics
coupled
##lev
tube
conception
pune
##brand
tam
borg
##saka
mathematical
##iano
confirmed
lesley
crates
nicely
##achal
##ி
##ホ
1894
barnard
demonstration
##ク
periphery
horizons
##pad
##hetic
[...]
